<unk>	0
<s>	0
</s>	0
he	-0
▁t	-1
▁a	-2
▁s	-3
▁w	-4
nd	-5
▁the	-6
ed	-7
▁and	-8
▁to	-9
▁b	-10
in	-11
▁h	-12
▁wa	-13
re	-14
ou	-15
▁f	-16
it	-17
▁T	-18
▁l	-19
▁c	-20
▁d	-21
er	-22
▁he	-23
▁m	-24
▁p	-25
▁was	-26
om	-27
▁o	-28
▁The	-29
ay	-30
ar	-31
is	-32
ing	-33
il	-34
▁g	-35
id	-36
▁S	-37
at	-38
en	-39
▁n	-40
▁sa	-41
▁ha	-42
an	-43
im	-44
or	-45
on	-46
▁it	-47
▁H	-48
▁th	-49
ll	-50
▁"	-51
le	-52
ot	-53
▁She	-54
▁her	-55
et	-56
ir	-57
▁He	-58
▁They	-59
es	-60
▁in	-61
ver	-62
ut	-63
ow	-64
▁L	-65
ck	-66
▁e	-67
▁u	-68
▁y	-69
ld	-70
oo	-71
ily	-72
▁said	-73
ig	-74
▁r	-75
▁I	-76
▁be	-77
am	-78
▁st	-79
ke	-80
ce	-81
ve	-82
ith	-83
pp	-84
▁she	-85
▁with	-86
▁Lily	-87
▁O	-88
▁on	-89
▁On	-90
▁you	-91
ked	-92
▁of	-93
ri	-94
▁B	-95
▁pl	-96
nt	-97
▁his	-98
ad	-99
▁so	-100
very	-101
▁day	-102
▁that	-103
▁up	-104
▁play	-105
▁had	-106
▁they	-107
st	-108
▁we	-109
▁mom	-110
▁M	-111
▁for	-112
el	-113
un	-114
ould	-115
my	-116
▁li	-117
ch	-118
▁happ	-119
▁want	-120
ent	-121
▁sh	-122
itt	-123
her	-124
out	-125
▁not	-126
▁do	-127
ome	-128
se	-129
▁very	-130
ly	-131
end	-132
ound	-133
all	-134
▁wh	-135
▁k	-136
ime	-137
ittle	-138
▁time	-139
al	-140
▁A	-141
▁little	-142
▁ne	-143
▁there	-144
ht	-145
▁is	-146
▁It	-147
▁happy	-148
▁big	-149
▁re	-150
▁sm	-151
▁but	-152
▁saw	-153
▁an	-154
ra	-155
ry	-156
riend	-157
."	-158
▁friend	-159
▁as	-160
ack	-161
ide	-162
ake	-163
▁One	-164
ug	-165
▁Tim	-166
!"	-167
▁loo	-168
▁were	-169
ter	-170
ved	-171
▁lo	-172
ore	-173
▁Once	-174
▁se	-175
▁too	-176
▁J	-177
▁him	-178
▁bo	-179
▁go	-180
▁are	-181
ec	-182
▁j	-183
▁wanted	-184
ard	-185
ill	-186
irl	-187
▁them	-188
▁Tom	-189
▁Ben	-190
▁upon	-191
▁girl	-192
▁their	-193
▁out	-194
▁at	-195
ind	-196
ur	-197
▁did	-198
way	-199
fu	-200
▁sp	-201
▁could	-202
▁smil	-203
hen	-204
▁have	-205
ain	-206
hed	-207
art	-208
rom	-209
▁ex	-210
▁can	-211
▁went	-212
ic	-213
▁ar	-214
▁W	-215
lp	-216
ood	-217
ful	-218
▁But	-219
▁friends	-220
?"	-221
▁nam	-222
hing	-223
▁kn	-224
ight	-225
▁help	-226
▁say	-227
▁all	-228
one	-229
um	-230
ark	-231
▁back	-232
You	-233
▁fun	-234
▁cl	-235
are	-236
▁no	-237
▁le	-238
▁Timmy	-239
op	-240
▁sc	-241
▁named	-242
▁al	-243
elt	-244
oug	-245
▁man	-246
▁loved	-247
side	-248
▁smiled	-249
▁toy	-250
▁like	-251
ick	-252
▁felt	-253
▁asked	-254
▁fe	-255
▁some	-256
▁see	-257
▁looked	-258
▁me	-259
ame	-260
▁around	-261
▁ro	-262
omet	-263
ure	-264
▁br	-265
▁bir	-266
get	-267
ice	-268
▁boy	-269
▁would	-270
ong	-271
▁start	-272
as	-273
▁bird	-274
▁somet	-275
ings	-276
▁fa	-277
ade	-278
▁make	-279
▁ag	-280
▁what	-281
▁wor	-282
▁Mom	-283
▁You	-284
dd	-285
,"	-286
▁says	-287
king	-288
▁ran	-289
▁away	-290
own	-291
gether	-292
▁tre	-293
ag	-294
ared	-295
ie	-296
oud	-297
▁made	-298
▁started	-299
if	-300
▁car	-301
▁together	-302
▁something	-303
▁co	-304
ther	-305
▁park	-306
▁sad	-307
▁other	-308
ited	-309
▁put	-310
▁new	-311
▁from	-312
ell	-313
▁hug	-314
▁E	-315
▁pr	-316
ble	-317
▁again	-318
ook	-319
▁exc	-320
ach	-321
▁good	-322
▁home	-323
▁la	-324
▁mu	-325
▁F	-326
ss	-327
▁when	-328
▁fl	-329
ried	-330
ep	-331
▁who	-332
est	-333
▁then	-334
▁found	-335
▁ch	-336
▁dec	-337
pped	-338
hat	-339
▁get	-340
▁wal	-341
▁playing	-342
qu	-343
▁sw	-344
ought	-345
nn	-346
▁D	-347
▁liked	-348
uck	-349
▁things	-350
▁Sam	-351
ally	-352
pl	-353
ous	-354
▁Su	-355
▁got	-356
▁bl	-357
▁excited	-358
ro	-359
ided	-360
ave	-361
▁came	-362
ara	-363
▁every	-364
▁decided	-365
▁your	-366
▁Ann	-367
▁dog	-368
ax	-369
▁scared	-370
▁one	-371
▁down	-372
ust	-373
▁v	-374
▁find	-375
▁care	-376
ouse	-377
ap	-378
▁bec	-379
ist	-380
▁than	-381
▁Sara	-382
ny	-383
▁feel	-384
▁Anna	-385
▁dad	-386
▁ab	-387
▁will	-388
▁my	-389
arn	-390
▁look	-391
our	-392
▁gr	-393
▁Max	-394
ers	-395
▁ke	-396
▁gra	-397
▁didn	-398
ways	-399
ess	-400
▁po	-401
▁toys	-402
▁took	-403
fe	-404
nder	-405
▁about	-406
▁ball	-407
▁always	-408
▁lot	-409
▁mommy	-410
ant	-411
▁kne	-412
bb	-413
▁bu	-414
▁tree	-415
ise	-416
▁outside	-417
▁thought	-418
ite	-419
▁more	-420
▁ta	-421
▁So	-422
ened	-423
▁learn	-424
ret	-425
▁ho	-426
ched	-427
▁know	-428
eci	-429
▁pu	-430
▁int	-431
ged	-432
▁sor	-433
▁When	-434
▁cat	-435
▁laug	-436
▁take	-437
▁old	-438
ive	-439
ia	-440
▁speci	-441
▁special	-442
▁knew	-443
▁any	-444
▁pe	-445
▁Her	-446
▁Jo	-447
dden	-448
fter	-449
au	-450
▁how	-451
▁sorry	-452
▁tr	-453
ma	-454
ink	-455
▁show	-456
ish	-457
ddenly	-458
▁run	-459
▁sl	-460
▁much	-461
▁tw	-462
▁hand	-463
▁Every	-464
and	-465
▁or	-466
▁house	-467
▁Jack	-468
▁op	-469
▁mo	-470
▁water	-471
ven	-472
▁sk	-473
▁tried	-474
▁into	-475
▁sun	-476
ank	-477
▁inside	-478
▁clo	-479
ate	-480
▁told	-481
▁gave	-482
ump	-483
ty	-484
▁proud	-485
▁each	-486
▁qu	-487
▁en	-488
▁We	-489
▁if	-490
▁over	-491
▁room	-492
▁couldn	-493
▁heard	-494
here	-495
ace	-496
▁never	-497
▁eat	-498
▁Mia	-499
▁this	-500
▁pret	-501
other	-502
dy	-503
ause	-504
by	-505
ak	-506
▁played	-507
▁pick	-508
ion	-509
sed	-510
etter	-511
▁hugged	-512
▁expl	-513
ge	-514
▁Suddenly	-515
▁Then	-516
▁com	-517
▁gre	-518
▁just	-519
▁nice	-520
▁box	-521
▁From	-522
▁many	-523
▁need	-524
▁wat	-525
oth	-526
▁str	-527
▁because	-528
▁off	-529
▁And	-530
ue	-531
ile	-532
gry	-533
▁small	-534
iz	-535
▁His	-536
ving	-537
▁long	-538
▁jo	-539
▁sn	-540
ine	-541
▁fo	-542
imal	-543
▁animal	-544
▁bear	-545
▁try	-546
ough	-547
uc	-548
ort	-549
urt	-550
▁learned	-551
▁unt	-552
sel	-553
ild	-554
▁love	-555
▁until	-556
▁C	-557
▁kind	-558
ft	-559
▁better	-560
▁flow	-561
▁te	-562
▁end	-563
▁im	-564
urn	-565
▁don	-566
ves	-567
▁cle	-568
▁call	-569
▁best	-570
ady	-571
ars	-572
ream	-573
aut	-574
▁ad	-575
Yes	-576
vent	-577
▁fast	-578
▁careful	-579
urp	-580
arden	-581
▁garden	-582
▁beaut	-583
▁fi	-584
▁cu	-585
ber	-586
▁sky	-587
▁thanked	-588
▁bra	-589
▁jump	-590
▁even	-591
▁loud	-592
ies	-593
ase	-594
pt	-595
▁by	-596
▁laughed	-597
em	-598
▁che	-599
▁â	-600
iny	-601
wn	-602
self	-603
Th	-604
lly	-605
▁gl	-606
▁list	-607
▁come	-608
▁beauti	-609
▁hard	-610
▁still	-611
▁hurt	-612
lew	-613
▁beautiful	-614
▁animals	-615
▁lots	-616
▁fam	-617
▁way	-618
▁wo	-619
▁ra	-620
▁under	-621
hes	-622
▁let	-623
▁P	-624
▁stay	-625
be	-626
ect	-627
▁bad	-628
ning	-629
ct	-630
▁safe	-631
sh	-632
▁col	-633
ool	-634
ast	-635
▁both	-636
ople	-637
ock	-638
▁Joh	-639
kay	-640
▁rem	-641
▁book	-642
▁angry	-643
▁lived	-644
ished	-645
▁its	-646
▁As	-647
▁imp	-648
ree	-649
ress	-650
▁two	-651
It	-652
▁people	-653
ane	-654
▁brave	-655
▁family	-656
▁should	-657
No	-658
▁red	-659
urpr	-660
igh	-661
▁After	-662
▁walked	-663
▁su	-664
▁surpr	-665
▁flew	-666
▁fin	-667
▁stor	-668
▁share	-669
▁dan	-670
▁soon	-671
ucy	-672
▁fly	-673
▁Lucy	-674
xt	-675
ob	-676
▁pic	-677
▁doll	-678
fore	-679
led	-680
▁kept	-681
▁called	-682
ip	-683
▁fore	-684
▁rock	-685
Let	-686
▁clean	-687
▁pretty	-688
ised	-689
▁door	-690
dded	-691
▁shiny	-692
▁G	-693
▁going	-694
▁keep	-695
▁Mommy	-696
▁dra	-697
▁noise	-698
▁now	-699
▁real	-700
▁wind	-701
▁Dad	-702
▁opened	-703
▁John	-704
▁advent	-705
▁turn	-706
▁ide	-707
ummy	-708
ary	-709
so	-710
▁cry	-711
▁before	-712
▁con	-713
age	-714
▁ground	-715
▁also	-716
▁sto	-717
les	-718
illy	-719
▁ey	-720
▁color	-721
▁explore	-722
ied	-723
▁far	-724
▁has	-725
▁idea	-726
▁fr	-727
▁Sp	-728
kes	-729
imb	-730
▁war	-731
th	-732
ture	-733
▁un	-734
What	-735
thing	-736
▁next	-737
▁picked	-738
▁climb	-739
▁nodded	-740
aybe	-741
▁smile	-742
▁thr	-743
oy	-744
▁feeling	-745
▁truck	-746
▁while	-747
▁bed	-748
▁Bob	-749
▁walking	-750
TM	-751
eet	-752
▁wr	-753
▁adventure	-754
ger	-755
Thank	-756
▁picture	-757
ac	-758
▁being	-759
▁think	-760
▁give	-761
▁food	-762
▁ma	-763
ff	-764
iced	-765
▁tra	-766
▁dif	-767
That	-768
▁bre	-769
joy	-770
▁bro	-771
▁tow	-772
ted	-773
ious	-774
▁listen	-775
▁clos	-776
▁eyes	-777
▁N	-778
▁wait	-779
ught	-780
▁own	-781
▁fish	-782
▁stopped	-783
▁after	-784
▁looking	-785
ting	-786
▁R	-787
▁flowers	-788
▁Spot	-789
ember	-790
▁del	-791
▁walk	-792
▁Sue	-793
▁hands	-794
▁blue	-795
ized	-796
▁slide	-797
▁shout	-798
▁repl	-799
▁great	-800
▁ever	-801
▁mean	-802
▁enjoy	-803
▁vo	-804
▁head	-805
irst	-806
ila	-807
oon	-808
▁rain	-809
▁near	-810
▁noticed	-811
▁dis	-812
▁forest	-813
▁us	-814
▁ask	-815
▁quick	-816
▁import	-817
▁remember	-818
bbit	-819
▁sound	-820
▁app	-821
llow	-822
▁okay	-823
▁de	-824
maz	-825
▁work	-826
▁wonder	-827
▁showed	-828
▁ru	-829
▁amaz	-830
▁tal	-831
lease	-832
▁stick	-833
▁tou	-834
▁watch	-835
▁important	-836
bbed	-837
bye	-838
▁strong	-839
We	-840
gan	-841
▁ac	-842
▁everyone	-843
▁bright	-844
day	-845
fere	-846
▁rabbit	-847
▁differe	-848
▁boat	-849
▁our	-850
▁replied	-851
▁where	-852
▁squ	-853
▁right	-854
▁follow	-855
▁use	-856
▁does	-857
co	-858
▁watched	-859
able	-860
▁hop	-861
▁yell	-862
▁face	-863
ath	-864
▁mor	-865
▁quickly	-866
Look	-867
ered	-868
▁store	-869
▁dress	-870
▁Lila	-871
▁sure	-872
▁been	-873
▁became	-874
▁Th	-875
ange	-876
▁place	-877
ng	-878
▁Sarah	-879
▁different	-880
▁child	-881
▁curi	-882
aught	-883
▁warm	-884
▁ye	-885
▁goodbye	-886
▁am	-887
▁mag	-888
▁high	-889
▁voice	-890
▁Jane	-891
▁forg	-892
▁block	-893
▁tell	-894
more	-895
▁cake	-896
▁anymore	-897
leep	-898
ndma	-899
▁closer	-900
▁cook	-901
▁curious	-902
itc	-903
▁fav	-904
▁bel	-905
ount	-906
▁night	-907
▁pull	-908
▁open	-909
ey	-910
ired	-911
imes	-912
▁lea	-913
ached	-914
▁first	-915
▁pain	-916
iss	-917
▁z	-918
▁butter	-919
▁here	-920
▁fell	-921
▁kid	-922
ull	-923
▁grabbed	-924
▁sees	-925
Can	-926
unny	-927
▁sweet	-928
orn	-929
▁only	-930
▁flo	-931
itchen	-932
▁kitchen	-933
▁three	-934
▁Everyone	-935
▁sand	-936
▁In	-937
▁helped	-938
▁birds	-939
▁stop	-940
▁dr	-941
▁cont	-942
▁cra	-943
▁bit	-944
▁ba	-945
▁happened	-946
▁jumped	-947
▁glad	-948
▁fire	-949
▁mon	-950
ppy	-951
▁That	-952
▁sing	-953
▁beh	-954
▁grass	-955
▁tri	-956
▁Do	-957
▁per	-958
▁cr	-959
▁brother	-960
▁realized	-961
isy	-962
▁story	-963
▁shouted	-964
air	-965
▁reached	-966
▁mess	-967
▁soft	-968
akes	-969
▁Let	-970
ass	-971
▁yummy	-972
▁lady	-973
▁game	-974
ins	-975
▁having	-976
nts	-977
Mom	-978
▁draw	-979
▁ate	-980
▁hat	-981
▁prin	-982
▁pretend	-983
zy	-984
▁pap	-985
▁favor	-986
▁through	-987
▁underst	-988
where	-989
▁cre	-990
▁less	-991
▁rest	-992
▁favorite	-993
▁ready	-994
ater	-995
▁thing	-996
▁looks	-997
ken	-998
▁making	-999
ather	-1000
▁Can	-1001
▁kids	-1002
▁magic	-1003
▁Joe	-1004
▁really	-1005
▁duck	-1006
▁pare	-1007
▁tired	-1008
▁fix	-1009
▁pond	-1010
▁cars	-1011
▁cut	-1012
▁world	-1013
▁Tommy	-1014
Wow	-1015
▁done	-1016
▁began	-1017
▁mum	-1018
▁bunny	-1019
▁waved	-1020
bo	-1021
▁himself	-1022
▁catch	-1023
▁butterf	-1024
▁coming	-1025
▁touch	-1026
▁funny	-1027
▁cried	-1028
▁used	-1029
fully	-1030
▁worry	-1031
▁part	-1032
▁Fin	-1033
▁why	-1034
▁prom	-1035
▁name	-1036
ign	-1037
▁blocks	-1038
▁another	-1039
▁fill	-1040
▁ste	-1041
▁flower	-1042
▁hold	-1043
▁fro	-1044
▁hair	-1045
▁tast	-1046
▁top	-1047
▁seen	-1048
▁cool	-1049
ster	-1050
oney	-1051
▁swim	-1052
rel	-1053
▁wished	-1054
eddy	-1055
iver	-1056
▁thank	-1057
▁mouse	-1058
▁floor	-1059
▁green	-1060
▁light	-1061
▁bag	-1062
ient	-1063
▁delic	-1064
▁likes	-1065
▁gi	-1066
▁paper	-1067
▁smell	-1068
▁farm	-1069
▁parents	-1070
▁behind	-1071
▁Sally	-1072
ation	-1073
hy	-1074
▁lesson	-1075
▁dri	-1076
olly	-1077
▁surprise	-1078
▁doing	-1079
Don	-1080
▁hopped	-1081
▁dro	-1082
▁bow	-1083
▁worked	-1084
▁sleep	-1085
▁hole	-1086
ards	-1087
▁window	-1088
uff	-1089
andy	-1090
▁yellow	-1091
▁read	-1092
▁trees	-1093
▁dark	-1094
▁din	-1095
▁full	-1096
▁sho	-1097
▁laugh	-1098
▁running	-1099
aisy	-1100
ued	-1101
ike	-1102
ely	-1103
▁Benny	-1104
▁cold	-1105
ren	-1106
▁swing	-1107
rew	-1108
▁sat	-1109
▁spot	-1110
▁wood	-1111
".	-1112
us	-1113
▁surprised	-1114
▁slow	-1115
ul	-1116
▁remembered	-1117
aring	-1118
▁-	-1119
▁butterfly	-1120
▁happily	-1121
▁set	-1122
▁lost	-1123
▁needed	-1124
ons	-1125
▁years	-1126
▁ice	-1127
▁held	-1128
▁buy	-1129
Hell	-1130
Hello	-1131
▁move	-1132
▁frog	-1133
▁anything	-1134
▁At	-1135
▁wrong	-1136
▁carefully	-1137
▁snow	-1138
▁hear	-1139
▁Em	-1140
▁K	-1141
▁left	-1142
▁tall	-1143
▁There	-1144
▁hun	-1145
ens	-1146
▁perf	-1147
▁dir	-1148
▁dream	-1149
▁fair	-1150
▁followed	-1151
▁Now	-1152
▁air	-1153
▁enjoyed	-1154
TMs	-1155
▁Billy	-1156
▁el	-1157
▁finished	-1158
▁cast	-1159
▁children	-1160
▁Jim	-1161
cess	-1162
▁bug	-1163
▁books	-1164
▁hot	-1165
▁table	-1166
▁Finally	-1167
ined	-1168
▁Daisy	-1169
▁herself	-1170
▁To	-1171
▁hill	-1172
▁hid	-1173
▁bus	-1174
reed	-1175
▁Jen	-1176
▁arri	-1177
▁friendly	-1178
▁understand	-1179
ds	-1180
▁arm	-1181
▁contin	-1182
▁Gra	-1183
▁close	-1184
▁please	-1185
▁forgot	-1186
ross	-1187
▁might	-1188
▁colors	-1189
▁else	-1190
▁delicious	-1191
▁broken	-1192
▁build	-1193
▁wants	-1194
asure	-1195
sp	-1196
▁rel	-1197
lf	-1198
ash	-1199
▁gone	-1200
ield	-1201
▁gent	-1202
▁baby	-1203
room	-1204
atter	-1205
▁arrived	-1206
▁creat	-1207
▁tight	-1208
▁able	-1209
▁leaves	-1210
▁song	-1211
▁wonderful	-1212
▁someone	-1213
▁yes	-1214
▁wall	-1215
▁Molly	-1216
▁squir	-1217
ner	-1218
▁filled	-1219
av	-1220
▁This	-1221
▁gu	-1222
▁continued	-1223
ich	-1224
ask	-1225
▁lion	-1226
▁count	-1227
▁break	-1228
▁squirrel	-1229
▁Amy	-1230
▁agreed	-1231
▁ju	-1232
▁pink	-1233
▁Maybe	-1234
▁scary	-1235
▁poin	-1236
▁fall	-1237
▁enough	-1238
shed	-1239
▁castle	-1240
ee	-1241
icy	-1242
ries	-1243
man	-1244
▁grandma	-1245
▁vis	-1246
▁stayed	-1247
▁hungry	-1248
▁makes	-1249
▁moment	-1250
▁morning	-1251
▁smiles	-1252
▁finally	-1253
▁wet	-1254
▁fight	-1255
▁comp	-1256
▁cookies	-1257
▁getting	-1258
oup	-1259
▁turned	-1260
▁sometimes	-1261
gon	-1262
app	-1263
row	-1264
▁pictures	-1265
▁pi	-1266
▁talk	-1267
▁beach	-1268
rot	-1269
▁cream	-1270
ama	-1271
▁climbed	-1272
▁What	-1273
▁others	-1274
▁trying	-1275
▁clot	-1276
▁balloon	-1277
▁listened	-1278
oom	-1279
▁dinner	-1280
▁amazing	-1281
▁tail	-1282
▁clothes	-1283
ced	-1284
▁mus	-1285
ere	-1286
▁few	-1287
ance	-1288
apped	-1289
▁mar	-1290
▁met	-1291
▁puppy	-1292
lc	-1293
▁mother	-1294
ence	-1295
▁Jill	-1296
▁daddy	-1297
▁perfect	-1298
oring	-1299
amp	-1300
▁asks	-1301
▁spl	-1302
▁white	-1303
key	-1304
▁fur	-1305
red	-1306
▁alone	-1307
ctor	-1308
uffy	-1309
▁pet	-1310
▁sail	-1311
▁wasn	-1312
ucky	-1313
▁sit	-1314
▁brought	-1315
▁everything	-1316
▁sear	-1317
ister	-1318
▁pol	-1319
der	-1320
▁joy	-1321
▁grow	-1322
ott	-1323
▁strange	-1324
▁roll	-1325
▁pulled	-1326
ated	-1327
▁waited	-1328
▁pie	-1329
wl	-1330
Oh	-1331
▁deep	-1332
▁spark	-1333
▁ride	-1334
▁danger	-1335
▁woods	-1336
But	-1337
▁plan	-1338
▁won	-1339
▁runs	-1340
▁leave	-1341
▁music	-1342
me	-1343
▁thinks	-1344
▁amazed	-1345
▁visit	-1346
This	-1347
zz	-1348
ower	-1349
▁hide	-1350
ang	-1351
▁teddy	-1352
▁cloud	-1353
eter	-1354
▁Soon	-1355
Maybe	-1356
▁fox	-1357
▁pat	-1358
ever	-1359
▁pen	-1360
os	-1361
▁silly	-1362
ugg	-1363
▁living	-1364
▁flying	-1365
ope	-1366
▁shap	-1367
▁em	-1368
▁towards	-1369
gs	-1370
▁treat	-1371
▁owner	-1372
med	-1373
ames	-1374
ises	-1375
▁All	-1376
thy	-1377
▁pre	-1378
▁side	-1379
▁land	-1380
▁grate	-1381
▁field	-1382
▁lake	-1383
▁shared	-1384
ained	-1385
▁qui	-1386
▁money	-1387
▁paint	-1388
cket	-1389
igg	-1390
▁faster	-1391
▁party	-1392
▁promised	-1393
▁grateful	-1394
▁belie	-1395
▁sister	-1396
▁dance	-1397
▁bott	-1398
Okay	-1399
avy	-1400
▁race	-1401
▁moral	-1402
eces	-1403
ix	-1404
▁cup	-1405
cle	-1406
▁treasure	-1407
▁broke	-1408
▁pieces	-1409
▁Fl	-1410
▁job	-1411
▁candy	-1412
▁quiet	-1413
▁worried	-1414
unch	-1415
▁blank	-1416
▁colorful	-1417
sw	-1418
OK	-1419
▁train	-1420
ze	-1421
▁bigger	-1422
▁bran	-1423
▁answ	-1424
▁slowly	-1425
orm	-1426
▁Daddy	-1427
▁wear	-1428
outh	-1429
▁gif	-1430
▁dolls	-1431
▁welc	-1432
ually	-1433
▁blanket	-1434
▁reach	-1435
▁mouth	-1436
ling	-1437
▁must	-1438
▁ve	-1439
uit	-1440
▁snack	-1441
▁Mr	-1442
ol	-1443
▁such	-1444
▁Mama	-1445
▁cho	-1446
fort	-1447
▁bike	-1448
▁everywhere	-1449
▁ele	-1450
▁smart	-1451
▁scream	-1452
ased	-1453
▁pro	-1454
▁black	-1455
less	-1456
ph	-1457
▁river	-1458
ire	-1459
▁nap	-1460
▁plant	-1461
▁bar	-1462
▁join	-1463
▁stu	-1464
▁magical	-1465
▁je	-1466
▁pot	-1467
▁sign	-1468
▁princess	-1469
▁dangerous	-1470
▁helping	-1471
▁Just	-1472
▁win	-1473
▁pa	-1474
cked	-1475
▁threw	-1476
set	-1477
▁dirty	-1478
ming	-1479
▁carrot	-1480
▁Mary	-1481
▁twins	-1482
▁bowl	-1483
▁dragon	-1484
▁crying	-1485
▁tower	-1486
ipped	-1487
▁hoped	-1488
▁bite	-1489
▁doctor	-1490
ored	-1491
Sure	-1492
▁most	-1493
▁teac	-1494
ident	-1495
▁spr	-1496
▁same	-1497
▁farmer	-1498
▁heavy	-1499
▁bee	-1500
▁words	-1501
▁monster	-1502
▁acc	-1503
▁monkey	-1504
bble	-1505
ear	-1506
de	-1507
▁heal	-1508
▁across	-1509
▁coll	-1510
▁bath	-1511
Why	-1512
▁disapp	-1513
Hi	-1514
▁buck	-1515
▁hig	-1516
The	-1517
▁fruit	-1518
▁stepped	-1519
▁stre	-1520
▁closed	-1521
▁stuck	-1522
eared	-1523
▁heart	-1524
▁town	-1525
Mommy	-1526
▁feels	-1527
▁Grandma	-1528
chool	-1529
▁believe	-1530
▁wouldn	-1531
asket	-1532
▁basket	-1533
▁mix	-1534
▁teacher	-1535
▁cray	-1536
▁cour	-1537
▁att	-1538
▁butt	-1539
▁eating	-1540
▁hit	-1541
▁school	-1542
▁Emma	-1543
iting	-1544
▁chair	-1545
▁pushed	-1546
▁brown	-1547
▁yard	-1548
TMt	-1549
▁gentle	-1550
▁pack	-1551
▁min	-1552
▁course	-1553
▁neigh	-1554
▁without	-1555
br	-1556
▁clapped	-1557
issed	-1558
ord	-1559
▁Mum	-1560
ts	-1561
umb	-1562
▁higher	-1563
▁Jimmy	-1564
▁pers	-1565
pping	-1566
▁smo	-1567
▁sec	-1568
▁neighb	-1569
▁swings	-1570
▁accident	-1571
▁fairy	-1572
ier	-1573
vel	-1574
▁today	-1575
orrow	-1576
▁games	-1577
▁welcome	-1578
▁dry	-1579
▁Inside	-1580
▁stand	-1581
▁noises	-1582
ors	-1583
▁drove	-1584
▁pocket	-1585
▁throw	-1586
ventually	-1587
▁suddenly	-1588
▁forget	-1589
▁lon	-1590
▁turns	-1591
▁hugs	-1592
▁piece	-1593
▁cheered	-1594
▁Their	-1595
ract	-1596
▁free	-1597
▁ben	-1598
▁lonely	-1599
▁fence	-1600
▁happen	-1601
cy	-1602
▁wings	-1603
▁Wh	-1604
ourn	-1605
▁neck	-1606
▁longer	-1607
▁journ	-1608
▁sang	-1609
ible	-1610
ead	-1611
▁explained	-1612
▁along	-1613
▁sea	-1614
▁soup	-1615
▁corn	-1616
▁stories	-1617
▁late	-1618
▁upset	-1619
▁well	-1620
itting	-1621
▁shoes	-1622
▁inst	-1623
▁secret	-1624
▁adventures	-1625
▁miss	-1626
▁mat	-1627
▁Fluffy	-1628
▁trou	-1629
▁stars	-1630
▁caught	-1631
phant	-1632
▁whe	-1633
ches	-1634
▁singing	-1635
▁ph	-1636
oun	-1637
▁rocks	-1638
▁bucket	-1639
▁lunch	-1640
ape	-1641
ces	-1642
▁swam	-1643
▁dropped	-1644
▁Sammy	-1645
▁dist	-1646
▁wish	-1647
▁shook	-1648
▁young	-1649
ocked	-1650
▁drink	-1651
▁elephant	-1652
▁bring	-1653
▁moved	-1654
yard	-1655
ment	-1656
▁plac	-1657
▁belong	-1658
aughty	-1659
▁juice	-1660
ountain	-1661
▁Thank	-1662
▁star	-1663
▁naughty	-1664
▁backyard	-1665
ek	-1666
llo	-1667
▁mine	-1668
fused	-1669
▁jar	-1670
▁street	-1671
bow	-1672
▁tom	-1673
▁past	-1674
▁key	-1675
▁takes	-1676
▁taking	-1677
▁apple	-1678
▁shapes	-1679
▁purp	-1680
▁orange	-1681
▁exploring	-1682
ward	-1683
▁shop	-1684
▁owl	-1685
▁cou	-1686
Lily	-1687
▁Tw	-1688
Do	-1689
▁exp	-1690
▁nearby	-1691
▁pig	-1692
bby	-1693
▁Later	-1694
▁wise	-1695
▁nose	-1696
▁wondered	-1697
▁resp	-1698
▁woke	-1699
ung	-1700
▁comes	-1701
▁es	-1702
▁seemed	-1703
▁cow	-1704
▁busy	-1705
▁af	-1706
col	-1707
▁des	-1708
▁sounds	-1709
▁mail	-1710
▁bench	-1711
▁tiny	-1712
▁relie	-1713
▁sick	-1714
▁inv	-1715
▁purple	-1716
cing	-1717
▁mark	-1718
▁rainbow	-1719
sy	-1720
aughter	-1721
▁arms	-1722
ose	-1723
▁though	-1724
adow	-1725
▁mad	-1726
▁nest	-1727
ions	-1728
fish	-1729
ining	-1730
▁mil	-1731
▁year	-1732
thday	-1733
pper	-1734
▁3	-1735
ese	-1736
▁sitting	-1737
cks	-1738
▁ob	-1739
▁driver	-1740
▁holding	-1741
▁round	-1742
▁king	-1743
▁carry	-1744
raid	-1745
read	-1746
▁afraid	-1747
ity	-1748
▁branch	-1749
ittens	-1750
▁forever	-1751
ale	-1752
▁cir	-1753
▁whist	-1754
▁gift	-1755
▁hello	-1756
▁kite	-1757
▁spoon	-1758
board	-1759
▁boun	-1760
ost	-1761
vered	-1762
▁cute	-1763
▁daughter	-1764
▁peace	-1765
▁shell	-1766
▁lift	-1767
▁nothing	-1768
idge	-1769
to	-1770
▁fit	-1771
▁coat	-1772
og	-1773
▁swimming	-1774
▁huge	-1775
▁Come	-1776
▁With	-1777
▁touched	-1778
▁bread	-1779
▁patient	-1780
ours	-1781
Of	-1782
let	-1783
▁letter	-1784
▁Al	-1785
▁birthday	-1786
▁promise	-1787
▁grab	-1788
▁relieved	-1789
cer	-1790
sting	-1791
▁gives	-1792
▁accidentally	-1793
▁wra	-1794
eth	-1795
▁puts	-1796
▁band	-1797
▁Ell	-1798
▁hope	-1799
▁milk	-1800
▁bottle	-1801
▁creature	-1802
Hey	-1803
gg	-1804
▁fing	-1805
shine	-1806
▁days	-1807
▁intere	-1808
▁cheese	-1809
▁life	-1810
▁laughing	-1811
▁gigg	-1812
▁cozy	-1813
▁collect	-1814
alm	-1815
▁Tweet	-1816
▁lucky	-1817
▁bush	-1818
▁onto	-1819
▁exciting	-1820
▁kick	-1821
▁ret	-1822
▁mist	-1823
▁power	-1824
▁spin	-1825
▁cave	-1826
▁disco	-1827
▁comfort	-1828
▁journey	-1829
▁act	-1830
▁sunshine	-1831
▁sunny	-1832
gged	-1833
▁fan	-1834
▁Jenny	-1835
▁ear	-1836
▁instead	-1837
▁return	-1838
ped	-1839
ten	-1840
arp	-1841
ness	-1842
▁pointed	-1843
▁pudd	-1844
▁inc	-1845
▁smiling	-1846
▁imag	-1847
ize	-1848
▁eas	-1849
▁searched	-1850
els	-1851
itch	-1852
▁road	-1853
▁honey	-1854
▁sharp	-1855
▁anyone	-1856
▁hor	-1857
▁talked	-1858
oman	-1859
▁spo	-1860
▁bought	-1861
ball	-1862
▁later	-1863
▁suc	-1864
▁woman	-1865
▁sandw	-1866
▁plane	-1867
▁gather	-1868
blem	-1869
ub	-1870
▁problem	-1871
▁snowman	-1872
▁person	-1873
▁watching	-1874
mer	-1875
unt	-1876
▁crayons	-1877
▁smelled	-1878
▁healthy	-1879
▁rope	-1880
▁tasty	-1881
irt	-1882
▁trouble	-1883
Good	-1884
▁meet	-1885
▁ce	-1886
▁Ch	-1887
▁ducks	-1888
round	-1889
▁pop	-1890
▁loves	-1891
▁kiss	-1892
▁Somet	-1893
itten	-1894
▁pile	-1895
een	-1896
▁clouds	-1897
▁ent	-1898
▁apples	-1899
▁shining	-1900
▁par	-1901
ove	-1902
▁storm	-1903
▁spid	-1904
▁button	-1905
▁interesting	-1906
▁Emily	-1907
▁How	-1908
▁Re	-1909
▁mach	-1910
▁zoom	-1911
amed	-1912
▁organ	-1913
▁card	-1914
▁adm	-1915
▁zoo	-1916
▁pres	-1917
▁wide	-1918
▁clever	-1919
▁Mittens	-1920
▁res	-1921
ont	-1922
▁feather	-1923
owed	-1924
▁matter	-1925
▁pill	-1926
ndp	-1927
▁bark	-1928
▁hon	-1929
▁pract	-1930
▁prot	-1931
aur	-1932
▁ap	-1933
▁respect	-1934
▁eag	-1935
▁front	-1936
▁screamed	-1937
epend	-1938
▁goes	-1939
▁mud	-1940
ail	-1941
▁seat	-1942
▁protect	-1943
▁neighbor	-1944
▁saf	-1945
▁shr	-1946
▁quest	-1947
▁danced	-1948
▁horse	-1949
isa	-1950
▁sur	-1951
eb	-1952
▁trip	-1953
▁answer	-1954
▁puzz	-1955
▁asleep	-1956
▁vill	-1957
▁present	-1958
▁myster	-1959
▁spotted	-1960
▁St	-1961
▁tries	-1962
▁appeared	-1963
▁snake	-1964
erly	-1965
Come	-1966
▁teach	-1967
▁whole	-1968
▁path	-1969
▁Jake	-1970
▁giant	-1971
▁wild	-1972
▁lovely	-1973
▁cheer	-1974
ching	-1975
▁phone	-1976
▁slid	-1977
▁places	-1978
▁which	-1979
œI	-1980
▁wearing	-1981
▁di	-1982
up	-1983
▁teeth	-1984
▁Go	-1985
▁dirt	-1986
▁forgive	-1987
▁rolled	-1988
oose	-1989
▁confused	-1990
izz	-1991
▁Together	-1992
ular	-1993
▁Lisa	-1994
▁minut	-1995
▁tasted	-1996
ones	-1997
▁gently	-1998
▁impress	-1999
▁val	-2000
▁couch	-2001
▁tun	-2002
▁faces	-2003
▁thin	-2004
▁rude	-2005
ert	-2006
ssed	-2007
▁calm	-2008
▁pass	-2009
▁live	-2010
itty	-2011
▁mind	-2012
ndpa	-2013
▁spent	-2014
▁splas	-2015
▁Le	-2016
▁pretended	-2017
▁pan	-2018
cean	-2019
▁med	-2020
▁ocean	-2021
▁ash	-2022
▁feet	-2023
▁supp	-2024
▁lad	-2025
nic	-2026
▁sal	-2027
▁pour	-2028
▁ser	-2029
▁picnic	-2030
▁coin	-2031
▁machine	-2032
▁lay	-2033
unk	-2034
▁sack	-2035
▁corner	-2036
▁Sometimes	-2037
▁ring	-2038
▁drive	-2039
▁write	-2040
▁worm	-2041
▁bugs	-2042
▁spider	-2043
▁oven	-2044
▁push	-2045
▁wave	-2046
▁emb	-2047
▁chocol	-2048
Tom	-2049
▁building	-2050
▁smooth	-2051
▁last	-2052
▁ign	-2053
▁tomorrow	-2054
▁cookie	-2055
▁helpful	-2056
▁ca	-2057
umber	-2058
arge	-2059
▁cann	-2060
▁hiding	-2061
▁cart	-2062
▁Be	-2063
▁rec	-2064
als	-2065
▁Bu	-2066
▁wip	-2067
▁furry	-2068
▁ladder	-2069
▁remind	-2070
la	-2071
▁cannot	-2072
▁mountain	-2073
lex	-2074
ator	-2075
▁tid	-2076
▁blew	-2077
▁bell	-2078
▁ban	-2079
▁bubble	-2080
ato	-2081
▁chick	-2082
▁paw	-2083
▁spread	-2084
▁talking	-2085
ife	-2086
▁fighting	-2087
▁fold	-2088
▁finish	-2089
▁tool	-2090
▁delight	-2091
▁embar	-2092
▁leaf	-2093
▁embarra	-2094
▁sel	-2095
▁pool	-2096
▁wore	-2097
▁rob	-2098
▁foot	-2099
▁puddle	-2100
▁songs	-2101
▁shy	-2102
▁knee	-2103
ighed	-2104
▁spray	-2105
▁eventually	-2106
▁rep	-2107
▁neckl	-2108
▁waiting	-2109
▁maybe	-2110
▁chocolate	-2111
▁net	-2112
▁chased	-2113
▁bat	-2114
▁whenever	-2115
▁fixed	-2116
oph	-2117
▁stret	-2118
▁barked	-2119
▁Everywhere	-2120
▁large	-2121
ult	-2122
▁selfish	-2123
▁string	-2124
▁coo	-2125
▁sol	-2126
▁Please	-2127
lebr	-2128
▁wash	-2129
▁Some	-2130
▁Peter	-2131
▁Teddy	-2132
▁peaceful	-2133
▁celebr	-2134
▁whistle	-2135
▁stir	-2136
per	-2137
▁carrots	-2138
urse	-2139
▁ant	-2140
▁spe	-2141
▁cross	-2142
St	-2143
▁creative	-2144
▁plate	-2145
▁taste	-2146
▁hum	-2147
▁banan	-2148
▁robot	-2149
▁gen	-2150
▁tidy	-2151
▁moon	-2152
▁Z	-2153
▁knocked	-2154
▁'	-2155
iger	-2156
▁trust	-2157
▁crab	-2158
orry	-2159
▁hears	-2160
▁While	-2161
▁tells	-2162
box	-2163
▁cloth	-2164
My	-2165
▁village	-2166
▁stone	-2167
▁missed	-2168
ungle	-2169
▁colour	-2170
▁stra	-2171
▁embarrassed	-2172
airs	-2173
▁Little	-2174
▁jungle	-2175
▁step	-2176
▁rocket	-2177
▁decor	-2178
old	-2179
Please	-2180
▁spicy	-2181
▁necklace	-2182
elly	-2183
▁treats	-2184
▁shelf	-2185
▁scar	-2186
▁hel	-2187
getable	-2188
umpy	-2189
arm	-2190
▁shirt	-2191
▁forward	-2192
▁vegetable	-2193
ush	-2194
▁splash	-2195
dge	-2196
▁tea	-2197
▁sticks	-2198
▁emp	-2199
▁legs	-2200
▁Sus	-2201
oin	-2202
▁empty	-2203
▁save	-2204
▁jumping	-2205
▁ple	-2206
▁Rex	-2207
▁nut	-2208
▁gray	-2209
▁whis	-2210
▁sharing	-2211
▁grew	-2212
▁ber	-2213
▁sheep	-2214
▁Johnn	-2215
aking	-2216
▁tightly	-2217
▁landed	-2218
most	-2219
▁Mummy	-2220
▁gener	-2221
▁meant	-2222
▁deter	-2223
▁ashamed	-2224
▁bal	-2225
▁nods	-2226
▁disappoin	-2227
▁pillow	-2228
▁determ	-2229
▁almost	-2230
ird	-2231
▁TV	-2232
ying	-2233
▁honest	-2234
▁Don	-2235
▁pizz	-2236
▁Even	-2237
ian	-2238
▁Why	-2239
▁gold	-2240
▁jew	-2241
▁sour	-2242
dle	-2243
▁breath	-2244
▁carried	-2245
▁Leo	-2246
▁meadow	-2247
▁understood	-2248
▁Alice	-2249
▁Johnny	-2250
ano	-2251
▁yelled	-2252
▁stood	-2253
▁these	-2254
▁van	-2255
▁police	-2256
▁drew	-2257
den	-2258
ground	-2259
Stop	-2260
▁seed	-2261
▁pay	-2262
▁kitten	-2263
▁snacks	-2264
▁prince	-2265
ned	-2266
▁success	-2267
▁fear	-2268
▁bored	-2269
▁sparkly	-2270
gly	-2271
erp	-2272
▁av	-2273
▁lem	-2274
Ben	-2275
ital	-2276
aul	-2277
▁gun	-2278
▁ugly	-2279
ony	-2280
▁gas	-2281
▁shore	-2282
▁vase	-2283
▁disappointed	-2284
▁hosp	-2285
hin	-2286
▁line	-2287
ork	-2288
ustr	-2289
▁hours	-2290
kin	-2291
▁hospital	-2292
▁group	-2293
▁class	-2294
ho	-2295
▁pizza	-2296
vous	-2297
itter	-2298
▁seek	-2299
▁plants	-2300
iff	-2301
▁blow	-2302
▁knowing	-2303
▁Mark	-2304
▁hidden	-2305
▁generous	-2306
▁returned	-2307
▁cries	-2308
▁tent	-2309
▁puzzle	-2310
oop	-2311
▁pri	-2312
▁easy	-2313
▁messy	-2314
▁feed	-2315
▁poor	-2316
▁frustr	-2317
▁glass	-2318
▁Bl	-2319
▁standing	-2320
▁sleepy	-2321
▁pin	-2322
▁waves	-2323
▁test	-2324
▁sighed	-2325
▁jelly	-2326
▁fancy	-2327
▁burn	-2328
▁flag	-2329
▁sandwich	-2330
Sorry	-2331
▁thankful	-2332
▁bedroom	-2333
▁powerful	-2334
▁ship	-2335
▁taught	-2336
body	-2337
▁tick	-2338
▁scarf	-2339
▁kissed	-2340
▁ner	-2341
Where	-2342
▁sold	-2343
▁circ	-2344
▁crown	-2345
▁pir	-2346
lower	-2347
▁twirl	-2348
▁boring	-2349
▁deer	-2350
▁mot	-2351
ote	-2352
▁nervous	-2353
era	-2354
▁reg	-2355
erpill	-2356
▁caterpill	-2357
▁mysterious	-2358
mb	-2359
▁tears	-2360
▁frustrated	-2361
▁polite	-2362
arl	-2363
▁spoil	-2364
work	-2365
assed	-2366
af	-2367
▁scr	-2368
▁passed	-2369
Are	-2370
▁Br	-2371
▁closet	-2372
▁often	-2373
▁Bo	-2374
▁Today	-2375
oof	-2376
▁hur	-2377
▁drop	-2378
▁yourself	-2379
▁minutes	-2380
▁hang	-2381
▁determined	-2382
▁leg	-2383
pack	-2384
▁fig	-2385
▁gets	-2386
▁clown	-2387
▁rad	-2388
ensive	-2389
▁excite	-2390
selves	-2391
▁fil	-2392
▁gate	-2393
issors	-2394
▁cap	-2395
▁expensive	-2396
▁bridge	-2397
▁chew	-2398
▁dancing	-2399
ina	-2400
iddle	-2401
▁chest	-2402
▁gathered	-2403
light	-2404
▁picks	-2405
▁scissors	-2406
▁flut	-2407
▁saved	-2408
▁finger	-2409
ets	-2410
illed	-2411
▁wagged	-2412
▁OK	-2413
ates	-2414
ual	-2415
▁esc	-2416
izzy	-2417
▁caterpillar	-2418
▁wolf	-2419
▁boss	-2420
osaur	-2421
▁wander	-2422
▁grumpy	-2423
▁drum	-2424
▁comfortable	-2425
▁No	-2426
▁lock	-2427
▁Susie	-2428
▁packed	-2429
ond	-2430
▁queen	-2431
▁answered	-2432
▁hopping	-2433
▁working	-2434
ots	-2435
▁spend	-2436
▁dogs	-2437
▁mistake	-2438
▁excitement	-2439
▁lit	-2440
▁mummy	-2441
▁dinosaur	-2442
▁stuff	-2443
▁taken	-2444
▁knight	-2445
▁cand	-2446
▁vegetables	-2447
▁medic	-2448
▁Kitty	-2449
▁wheel	-2450
uce	-2451
▁walks	-2452
▁drawing	-2453
▁pus	-2454
▁middle	-2455
▁press	-2456
▁bone	-2457
ggs	-2458
▁eggs	-2459
▁true	-2460
que	-2461
▁lazy	-2462
▁lose	-2463
▁giggled	-2464
▁crawl	-2465
▁ones	-2466
▁ruined	-2467
▁mir	-2468
▁fruits	-2469
▁wis	-2470
▁dest	-2471
▁clap	-2472
▁medicine	-2473
ugar	-2474
▁add	-2475
▁number	-2476
▁bathroom	-2477
▁smelly	-2478
iness	-2479
▁asking	-2480
ecially	-2481
Who	-2482
▁Blue	-2483
▁exam	-2484
▁fake	-2485
▁feathers	-2486
▁sugar	-2487
▁sight	-2488
▁brush	-2489
▁stones	-2490
▁gar	-2491
▁licked	-2492
▁sweetie	-2493
▁tape	-2494
pecially	-2495
▁especially	-2496
ror	-2497
aser	-2498
▁team	-2499
▁weak	-2500
▁change	-2501
▁body	-2502
▁distance	-2503
▁nod	-2504
▁roar	-2505
ella	-2506
▁drank	-2507
▁pleased	-2508
▁lead	-2509
elp	-2510
▁match	-2511
▁bake	-2512
▁pray	-2513
▁cri	-2514
▁cage	-2515
▁splashed	-2516
▁Eventually	-2517
▁fluffy	-2518
▁If	-2519
▁balls	-2520
▁mic	-2521
▁yours	-2522
▁mov	-2523
ating	-2524
▁lying	-2525
▁calling	-2526
aged	-2527
▁fis	-2528
▁sailed	-2529
▁moving	-2530
uggest	-2531
▁glow	-2532
▁Dan	-2533
▁lemon	-2534
▁tie	-2535
▁suggest	-2536
▁disappeared	-2537
▁board	-2538
▁Rose	-2539
▁sell	-2540
▁noisy	-2541
▁glue	-2542
▁wrote	-2543
▁soap	-2544
▁clear	-2545
ete	-2546
hip	-2547
▁relax	-2548
ha	-2549
▁rid	-2550
▁ok	-2551
▁week	-2552
▁decide	-2553
Help	-2554
▁eld	-2555
▁become	-2556
▁incred	-2557
▁moms	-2558
▁measure	-2559
▁juicy	-2560
▁U	-2561
▁mirror	-2562
▁covered	-2563
alous	-2564
▁playground	-2565
Now	-2566
▁shows	-2567
▁jealous	-2568
yal	-2569
▁questions	-2570
▁horn	-2571
▁fine	-2572
▁Bobby	-2573
▁rare	-2574
▁content	-2575
▁boys	-2576
▁craw	-2577
ination	-2578
▁eager	-2579
▁crawled	-2580
▁towel	-2581
▁check	-2582
ipp	-2583
▁skipped	-2584
▁dig	-2585
▁father	-2586
▁ind	-2587
▁cleaned	-2588
▁Mrs	-2589
▁ext	-2590
▁ord	-2591
▁famous	-2592
▁eye	-2593
▁twist	-2594
▁Ella	-2595
▁needs	-2596
▁shoot	-2597
▁End	-2598
▁garage	-2599
▁joke	-2600
▁incredible	-2601
imp	-2602
▁trucks	-2603
eez	-2604
▁ed	-2605
umbled	-2606
▁sword	-2607
▁loyal	-2608
▁tiger	-2609
illi	-2610
▁hose	-2611
▁bubbles	-2612
ory	-2613
▁map	-2614
▁organized	-2615
▁happening	-2616
ti	-2617
▁realised	-2618
▁unus	-2619
▁branches	-2620
▁word	-2621
fic	-2622
▁lamp	-2623
▁borrow	-2624
▁tag	-2625
▁discovered	-2626
▁Pete	-2627
▁motor	-2628
▁unusual	-2629
▁dish	-2630
ipper	-2631
▁once	-2632
▁hurts	-2633
▁wand	-2634
▁extra	-2635
Be	-2636
▁sil	-2637
▁frown	-2638
▁knife	-2639
cil	-2640
▁rich	-2641
▁elderly	-2642
▁thick	-2643
▁pencil	-2644
ddy	-2645
▁mod	-2646
▁balloons	-2647
lies	-2648
▁whale	-2649
▁cover	-2650
▁diffic	-2651
▁figure	-2652
▁louder	-2653
▁cost	-2654
Me	-2655
asing	-2656
ique	-2657
▁four	-2658
▁guess	-2659
▁bottom	-2660
keep	-2661
▁difficult	-2662
port	-2663
▁aw	-2664
▁toug	-2665
▁Mandy	-2666
▁laughs	-2667
▁colourful	-2668
▁flash	-2669
▁unique	-2670
▁ang	-2671
▁compet	-2672
▁arg	-2673
▁offered	-2674
▁chase	-2675
▁balance	-2676
fast	-2677
▁boxes	-2678
▁shake	-2679
imed	-2680
▁ham	-2681
▁added	-2682
▁spun	-2683
cept	-2684
ery	-2685
▁turt	-2686
▁hero	-2687
▁wrapped	-2688
▁barn	-2689
▁jewel	-2690
▁adventur	-2691
▁Brown	-2692
▁berries	-2693
ately	-2694
▁kindness	-2695
▁coins	-2696
▁straw	-2697
▁giving	-2698
▁breakfast	-2699
?".	-2700
▁log	-2701
ages	-2702
▁chicken	-2703
▁Ellie	-2704
▁bloom	-2705
ature	-2706
▁bald	-2707
▁goat	-2708
▁banana	-2709
rag	-2710
ured	-2711
▁mighty	-2712
▁norm	-2713
▁adventurous	-2714
▁swan	-2715
▁dolp	-2716
ye	-2717
▁fool	-2718
▁falls	-2719
▁managed	-2720
land	-2721
▁lifted	-2722
▁tough	-2723
ym	-2724
▁pump	-2725
▁pointing	-2726
▁cher	-2727
ject	-2728
▁helps	-2729
uggled	-2730
▁dizzy	-2731
▁circle	-2732
Well	-2733
Tim	-2734
▁pee	-2735
alk	-2736
▁wagon	-2737
olog	-2738
▁Mar	-2739
▁harder	-2740
▁Bella	-2741
▁My	-2742
ouses	-2743
keeper	-2744
▁dreamed	-2745
▁competit	-2746
▁smoke	-2747
▁weird	-2748
▁melt	-2749
▁loudly	-2750
▁normal	-2751
Here	-2752
oppy	-2753
▁bossy	-2754
▁belonged	-2755
▁market	-2756
▁impressed	-2757
▁fat	-2758
▁ears	-2759
▁grown	-2760
▁wrap	-2761
▁apolog	-2762
▁Fred	-2763
▁skin	-2764
▁shape	-2765
ilt	-2766
▁hats	-2767
▁knows	-2768
▁icy	-2769
▁stubb	-2770
▁learning	-2771
▁Dave	-2772
emo	-2773
▁against	-2774
▁search	-2775
▁Nemo	-2776
▁hunt	-2777
▁scare	-2778
▁depend	-2779
▁houses	-2780
▁enjoying	-2781
pes	-2782
anged	-2783
▁means	-2784
▁favour	-2785
▁harm	-2786
▁slipped	-2787
▁brothers	-2788
head	-2789
▁rough	-2790
▁edge	-2791
▁painting	-2792
reen	-2793
▁choose	-2794
▁grace	-2795
▁brilli	-2796
▁record	-2797
▁Mike	-2798
▁fright	-2799
▁buttons	-2800
▁stubborn	-2801
▁ref	-2802
apping	-2803
ready	-2804
▁Ducky	-2805
▁whisp	-2806
▁favourite	-2807
▁foolish	-2808
▁jack	-2809
▁safely	-2810
▁shells	-2811
▁brilliant	-2812
▁batter	-2813
▁cudd	-2814
▁toast	-2815
▁fridge	-2816
▁circles	-2817
omed	-2818
▁space	-2819
▁stri	-2820
iv	-2821
▁ter	-2822
▁guit	-2823
▁cro	-2824
rage	-2825
▁happiness	-2826
▁already	-2827
▁rat	-2828
▁turtle	-2829
▁bitter	-2830
erry	-2831
aw	-2832
▁walls	-2833
▁office	-2834
▁yog	-2835
▁libr	-2836
▁law	-2837
▁wake	-2838
▁sounded	-2839
▁island	-2840
▁mixed	-2841
▁strawber	-2842
edient	-2843
▁dreams	-2844
▁saying	-2845
▁clay	-2846
▁egg	-2847
▁crack	-2848
▁Bobo	-2849
▁cheerful	-2850
ext	-2851
erg	-2852
arth	-2853
▁trunk	-2854
iable	-2855
▁bags	-2856
▁unl	-2857
▁cam	-2858
▁valu	-2859
▁smaller	-2860
▁movie	-2861
▁roof	-2862
▁escape	-2863
ache	-2864
▁fier	-2865
▁nosy	-2866
▁guitar	-2867
▁excla	-2868
▁shark	-2869
▁notice	-2870
▁poured	-2871
▁accept	-2872
▁parrot	-2873
▁cab	-2874
▁stronger	-2875
▁stream	-2876
▁magn	-2877
▁tunn	-2878
sc	-2879
▁crayon	-2880
▁obedient	-2881
▁invited	-2882
▁weal	-2883
▁nicely	-2884
▁exclaimed	-2885
arry	-2886
▁useful	-2887
▁dependable	-2888
▁suggested	-2889
▁cabin	-2890
▁tools	-2891
▁reliable	-2892
▁fierce	-2893
▁thu	-2894
▁times	-2895
▁Tweety	-2896
▁low	-2897
▁Soph	-2898
▁terri	-2899
▁proudly	-2900
▁scrat	-2901
▁counted	-2902
▁fingers	-2903
▁city	-2904
▁rose	-2905
▁independ	-2906
ado	-2907
▁showing	-2908
▁study	-2909
ola	-2910
▁pil	-2911
▁lean	-2912
irp	-2913
▁Joey	-2914
▁bushes	-2915
▁Kim	-2916
▁design	-2917
▁above	-2918
▁explored	-2919
na	-2920
wards	-2921
▁tummy	-2922
▁joined	-2923
▁hoop	-2924
▁frightened	-2925
corn	-2926
▁dead	-2927
▁stumbled	-2928
rell	-2929
▁gem	-2930
▁kicked	-2931
▁birdie	-2932
▁fountain	-2933
▁spinning	-2934
cu	-2935
cient	-2936
▁twig	-2937
▁spoiled	-2938
▁frag	-2939
▁dough	-2940
▁locked	-2941
▁lights	-2942
▁successful	-2943
▁stove	-2944
▁themselves	-2945
▁using	-2946
▁cop	-2947
kn	-2948
▁mem	-2949
▁wiped	-2950
▁jog	-2951
▁brightly	-2952
▁excitedly	-2953
▁zip	-2954
▁valuable	-2955
▁rode	-2956
▁tele	-2957
ormous	-2958
▁independent	-2959
▁enormous	-2960
az	-2961
amond	-2962
▁ancient	-2963
▁swe	-2964
▁yarn	-2965
▁Grandpa	-2966
œLet	-2967
▁beak	-2968
▁cleaning	-2969
▁fre	-2970
▁Your	-2971
▁thoughtful	-2972
▁Whenever	-2973
▁kinds	-2974
▁delicate	-2975
▁built	-2976
anut	-2977
▁jam	-2978
ention	-2979
▁eng	-2980
▁seem	-2981
▁diamond	-2982
▁reminded	-2983
ither	-2984
▁Lola	-2985
▁steal	-2986
▁ow	-2987
inal	-2988
▁popcorn	-2989
ipe	-2990
▁shadow	-2991
▁thirst	-2992
orge	-2993
▁holds	-2994
▁shone	-2995
▁sniff	-2996
▁fragile	-2997
▁ways	-2998
mbrell	-2999
▁Fr	-3000
▁envel	-3001
▁admired	-3002
oot	-3003
▁stat	-3004
▁flute	-3005
▁umbrell	-3006
iginal	-3007
▁tank	-3008
▁bounce	-3009
▁bean	-3010
▁practice	-3011
uth	-3012
known	-3013
▁bees	-3014
▁marble	-3015
eeze	-3016
▁Pe	-3017
▁changed	-3018
▁grandpa	-3019
▁flashlight	-3020
▁Ge	-3021
▁costum	-3022
pid	-3023
▁whispered	-3024
illa	-3025
▁bump	-3026
▁rubb	-3027
▁finding	-3028
▁painted	-3029
▁brace	-3030
▁helm	-3031
▁half	-3032
umbers	-3033
▁solve	-3034
▁camera	-3035
▁pumpkin	-3036
▁lab	-3037
▁pige	-3038
ray	-3039
cod	-3040
▁Cl	-3041
▁serious	-3042
▁original	-3043
▁thirsty	-3044
▁stamp	-3045
▁unknown	-3046
uring	-3047
▁stupid	-3048
▁tomato	-3049
▁suit	-3050
▁dove	-3051
▁post	-3052
▁playful	-3053
▁Sn	-3054
▁raced	-3055
▁stairs	-3056
▁yet	-3057
▁beet	-3058
▁guard	-3059
▁sleeping	-3060
▁opens	-3061
▁wealthy	-3062
▁clum	-3063
▁picking	-3064
▁enc	-3065
▁salad	-3066
inary	-3067
▁cone	-3068
▁seeds	-3069
▁comput	-3070
gu	-3071
▁Ro	-3072
▁mis	-3073
▁pebble	-3074
▁chose	-3075
▁son	-3076
▁crocod	-3077
ilty	-3078
▁mole	-3079
▁allowed	-3080
▁guilty	-3081
▁peanut	-3082
How	-3083
▁angel	-3084
▁stops	-3085
▁dolphin	-3086
▁forth	-3087
▁flex	-3088
▁cheap	-3089
▁nurse	-3090
dom	-3091
▁washed	-3092
▁delighted	-3093
iew	-3094
▁doesn	-3095
▁nature	-3096
▁searching	-3097
▁Alex	-3098
▁metal	-3099
com	-3100
▁cere	-3101
▁clock	-3102
▁moder	-3103
▁George	-3104
▁sunf	-3105
▁jolly	-3106
▁march	-3107
anger	-3108
▁compass	-3109
▁boats	-3110
▁hammer	-3111
ines	-3112
▁fresh	-3113
vice	-3114
ugged	-3115
▁view	-3116
▁those	-3117
▁numbers	-3118
▁leaving	-3119
isk	-3120
▁clumsy	-3121
▁telling	-3122
▁rushed	-3123
▁hay	-3124
▁dull	-3125
oomy	-3126
ience	-3127
▁arrow	-3128
▁hairy	-3129
▁print	-3130
▁pant	-3131
▁Pat	-3132
▁dust	-3133
▁missing	-3134
het	-3135
▁regular	-3136
gest	-3137
▁flexible	-3138
▁Toby	-3139
▁acorn	-3140
▁shel	-3141
▁terrible	-3142
▁prize	-3143
▁modern	-3144
▁friendship	-3145
!".	-3146
▁engine	-3147
▁spilled	-3148
▁tem	-3149
▁jug	-3150
▁tor	-3151
ations	-3152
▁ending	-3153
▁load	-3154
▁tooth	-3155
▁biggest	-3156
▁sauce	-3157
▁driving	-3158
▁avo	-3159
▁aunt	-3160
aghet	-3161
aghetti	-3162
▁barber	-3163
▁envelope	-3164
▁sink	-3165
▁towers	-3166
▁umbrella	-3167
▁rub	-3168
▁sne	-3169
▁destro	-3170
▁pirate	-3171
▁potato	-3172
ict	-3173
▁handed	-3174
▁peeked	-3175
▁resc	-3176
▁popular	-3177
fa	-3178
▁handle	-3179
▁patter	-3180
time	-3181
▁careless	-3182
▁carrying	-3183
▁dreaming	-3184
▁loll	-3185
▁wire	-3186
▁beetle	-3187
▁screen	-3188
▁thunder	-3189
▁char	-3190
▁spaghetti	-3191
ipop	-3192
▁tied	-3193
▁graceful	-3194
See	-3195
▁Next	-3196
▁ing	-3197
▁comb	-3198
▁prep	-3199
▁wing	-3200
Re	-3201
▁stage	-3202
▁cereal	-3203
Go	-3204
▁jacket	-3205
▁statue	-3206
▁tunnel	-3207
▁rubbed	-3208
▁lollipop	-3209
▁compassion	-3210
▁mush	-3211
▁knock	-3212
▁pattern	-3213
▁desk	-3214
▁reward	-3215
▁slides	-3216
▁scatter	-3217
▁goose	-3218
redient	-3219
▁ingredient	-3220
▁shocked	-3221
▁computer	-3222
▁er	-3223
▁Andy	-3224
ision	-3225
arsh	-3226
▁note	-3227
▁deliver	-3228
▁scale	-3229
▁Sm	-3230
▁Polly	-3231
▁stack	-3232
robe	-3233
▁cur	-3234
▁square	-3235
▁mel	-3236
▁grand	-3237
▁meal	-3238
▁bull	-3239
▁trap	-3240
▁liz	-3241
▁crazy	-3242
▁truth	-3243
▁bracelet	-3244
▁crocodile	-3245
eezed	-3246
▁pengu	-3247
▁travel	-3248
▁pow	-3249
▁witch	-3250
▁gasped	-3251
▁shiver	-3252
▁mask	-3253
▁imagined	-3254
▁impressive	-3255
▁rug	-3256
▁Grace	-3257
▁perform	-3258
▁persist	-3259
ellig	-3260
▁trash	-3261
▁collar	-3262
▁earth	-3263
▁intellig	-3264
▁early	-3265
They	-3266
▁pup	-3267
▁jumps	-3268
▁thinking	-3269
host	-3270
▁advice	-3271
oe	-3272
Ow	-3273
▁Paul	-3274
ement	-3275
io	-3276
iches	-3277
▁wheels	-3278
▁crane	-3279
▁stranger	-3280
▁spring	-3281
▁env	-3282
▁perm	-3283
▁names	-3284
He	-3285
▁enth	-3286
▁windows	-3287
comfort	-3288
œWhat	-3289
▁spoke	-3290
illie	-3291
▁fork	-3292
▁ghost	-3293
ibb	-3294
▁bent	-3295
ikes	-3296
▁Look	-3297
▁beauty	-3298
▁create	-3299
▁Here	-3300
There	-3301
▁stickers	-3302
▁enthus	-3303
▁object	-3304
▁library	-3305
▁celebrate	-3306
▁ingredients	-3307
▁mushroom	-3308
aches	-3309
▁Bear	-3310
comfortable	-3311
▁mill	-3312
▁waff	-3313
▁growing	-3314
▁phot	-3315
▁order	-3316
▁warned	-3317
▁mailbox	-3318
▁discover	-3319
▁uncomfortable	-3320
▁reading	-3321
▁hipp	-3322
▁pale	-3323
▁torn	-3324
▁butterflies	-3325
awn	-3326
▁camp	-3327
▁sorts	-3328
▁Sophie	-3329
▁sparkled	-3330
œLetâ	-3331
▁pigeon	-3332
▁question	-3333
ebra	-3334
▁sofa	-3335
▁harmless	-3336
▁complet	-3337
▁letters	-3338
▁parade	-3339
▁competitive	-3340
coa	-3341
œYes	-3342
▁anx	-3343
tter	-3344
▁flour	-3345
▁sudden	-3346
œIt	-3347
▁penny	-3348
▁uncle	-3349
▁pretending	-3350
▁gor	-3351
▁destroy	-3352
▁sandwiches	-3353
ses	-3354
▁nuts	-3355
▁ahead	-3356
orant	-3357
▁rece	-3358
▁patch	-3359
▁counting	-3360
ips	-3361
loo	-3362
▁blueber	-3363
▁badly	-3364
▁pony	-3365
ince	-3366
▁shut	-3367
▁lizard	-3368
▁anxious	-3369
▁zebra	-3370
▁beep	-3371
▁surf	-3372
▁placed	-3373
▁cooking	-3374
▁piano	-3375
▁neat	-3376
▁humble	-3377
▁Tweetie	-3378
▁hook	-3379
▁encou	-3380
ices	-3381
▁sadly	-3382
▁snuggled	-3383
▁hung	-3384
▁univer	-3385
▁may	-3386
▁cocoa	-3387
▁ignorant	-3388
▁twirled	-3389
▁intelligent	-3390
ric	-3391
▁station	-3392
▁base	-3393
▁otter	-3394
▁sunflower	-3395
stri	-3396
▁couldnâ	-3397
▁Sh	-3398
▁super	-3399
▁persistent	-3400
aid	-3401
▁dug	-3402
▁triang	-3403
▁refused	-3404
Yay	-3405
▁nail	-3406
▁task	-3407
▁speed	-3408
▁pepper	-3409
ief	-3410
▁cards	-3411
▁gum	-3412
▁rules	-3413
cream	-3414
▁gloomy	-3415
▁cupboard	-3416
▁Ba	-3417
▁Bill	-3418
▁pants	-3419
▁chance	-3420
▁fearful	-3421
gust	-3422
▁chasing	-3423
▁charming	-3424
ud	-3425
▁Sandy	-3426
▁leash	-3427
▁starts	-3428
▁tur	-3429
▁sett	-3430
▁shaking	-3431
▁creatures	-3432
▁deaf	-3433
▁attract	-3434
▁Give	-3435
▁disgust	-3436
▁trick	-3437
▁carp	-3438
▁ordinary	-3439
▁track	-3440
arian	-3441
▁resist	-3442
▁pasta	-3443
▁trump	-3444
▁anywhere	-3445
erable	-3446
▁older	-3447
▁cartoon	-3448
lcano	-3449
▁curt	-3450
▁gifted	-3451
cut	-3452
▁hippo	-3453
▁curtain	-3454
▁led	-3455
▁yawn	-3456
▁miserable	-3457
ceed	-3458
▁courage	-3459
▁cricket	-3460
▁squash	-3461
▁gorilla	-3462
▁brighter	-3463
Give	-3464
▁impat	-3465
bled	-3466
▁send	-3467
▁gir	-3468
▁alert	-3469
▁purse	-3470
▁jet	-3471
▁practiced	-3472
ne	-3473
▁club	-3474
▁hurry	-3475
▁helmet	-3476
▁turkey	-3477
▁value	-3478
▁shouts	-3479
▁decorate	-3480
▁bandage	-3481
▁Charl	-3482
▁Un	-3483
ctop	-3484
ctopus	-3485
▁soldier	-3486
urb	-3487
▁compl	-3488
▁fu	-3489
▁ostri	-3490
▁scoot	-3491
▁impatient	-3492
▁case	-3493
▁tire	-3494
▁disturb	-3495
htub	-3496
iest	-3497
▁allig	-3498
▁volcano	-3499
▁compassionate	-3500
▁trumpet	-3501
▁bathtub	-3502
▁shine	-3503
▁Millie	-3504
und	-3505
▁bounced	-3506
▁support	-3507
▁itself	-3508
▁octopus	-3509
aked	-3510
▁spell	-3511
▁carpet	-3512
▁drawer	-3513
▁Where	-3514
▁disgusting	-3515
▁Are	-3516
▁jeep	-3517
▁Before	-3518
▁pressed	-3519
▁bicy	-3520
▁meas	-3521
▁grabs	-3522
▁filthy	-3523
▁melon	-3524
noon	-3525
▁comet	-3526
▁barking	-3527
▁afternoon	-3528
▁mug	-3529
▁salt	-3530
▁restless	-3531
▁shoe	-3532
▁hunter	-3533
aff	-3534
▁envious	-3535
Bye	-3536
▁bri	-3537
▁tray	-3538
▁succeed	-3539
▁firework	-3540
▁helpless	-3541
▁pulls	-3542
icop	-3543
icopter	-3544
▁Buddy	-3545
▁stretched	-3546
▁Hen	-3547
▁ten	-3548
▁nowhere	-3549
ubby	-3550
▁skip	-3551
▁admire	-3552
▁attractive	-3553
▁lively	-3554
▁cryst	-3555
▁magnet	-3556
▁nobody	-3557
▁helicopter	-3558
aroo	-3559
▁human	-3560
angaroo	-3561
▁shield	-3562
▁explain	-3563
▁repe	-3564
aurant	-3565
▁Brownie	-3566
▁cush	-3567
▁needle	-3568
▁organize	-3569
gn	-3570
▁somewhere	-3571
▁five	-3572
▁Jerry	-3573
▁giggle	-3574
▁restaurant	-3575
gging	-3576
▁cows	-3577
▁cats	-3578
▁leop	-3579
▁anyway	-3580
If	-3581
▁barrel	-3582
ser	-3583
▁vine	-3584
▁kangaroo	-3585
▁bet	-3586
▁vide	-3587
▁attic	-3588
▁monkeys	-3589
▁split	-3590
▁sticker	-3591
▁lions	-3592
▁cooked	-3593
▁reco	-3594
▁wishes	-3595
▁ostrich	-3596
ophone	-3597
▁Red	-3598
œThat	-3599
▁dess	-3600
▁thief	-3601
▁poem	-3602
▁chubby	-3603
▁thread	-3604
▁Bet	-3605
▁ants	-3606
▁Everything	-3607
▁further	-3608
▁sandbox	-3609
▁backpack	-3610
nna	-3611
▁seal	-3612
▁harsh	-3613
▁pun	-3614
▁goal	-3615
▁distant	-3616
▁respectful	-3617
▁tap	-3618
ebook	-3619
inking	-3620
▁radio	-3621
▁vi	-3622
▁paws	-3623
▁screw	-3624
astic	-3625
ummer	-3626
▁Bunny	-3627
▁notebook	-3628
stairs	-3629
▁holes	-3630
▁ribb	-3631
▁Henry	-3632
▁unpack	-3633
▁finds	-3634
▁raven	-3635
par	-3636
▁muff	-3637
▁sent	-3638
▁separ	-3639
▁pushes	-3640
▁Mag	-3641
iskers	-3642
▁math	-3643
▁fireman	-3644
▁modest	-3645
▁stirred	-3646
▁switch	-3647
▁alligator	-3648
▁Maria	-3649
▁steps	-3650
▁stared	-3651
▁elev	-3652
orable	-3653
▁frowned	-3654
▁Whiskers	-3655
▁Harry	-3656
▁package	-3657
night	-3658
▁Charlie	-3659
▁leopard	-3660
▁sweater	-3661
▁hedge	-3662
▁avoc	-3663
▁Annie	-3664
▁pand	-3665
▁bicycle	-3666
hood	-3667
stic	-3668
▁cardboard	-3669
▁micr	-3670
▁wheat	-3671
▁lid	-3672
▁cube	-3673
ipping	-3674
▁size	-3675
▁sheet	-3676
▁elevator	-3677
▁rice	-3678
▁soar	-3679
cycle	-3680
▁Smith	-3681
▁drawings	-3682
▁fort	-3683
▁bikes	-3684
▁behave	-3685
▁jokes	-3686
▁candle	-3687
▁lightning	-3688
▁ur	-3689
▁impro	-3690
▁adorable	-3691
iastic	-3692
▁silver	-3693
▁enthusiastic	-3694
▁breat	-3695
ci	-3696
iron	-3697
▁Will	-3698
▁hive	-3699
▁meat	-3700
▁bears	-3701
▁sort	-3702
▁haircut	-3703
▁exper	-3704
▁speak	-3705
gie	-3706
▁Snow	-3707
elery	-3708
▁happier	-3709
▁fle	-3710
heart	-3711
▁dessert	-3712
▁microphone	-3713
▁Lee	-3714
come	-3715
▁sle	-3716
▁loop	-3717
▁Tr	-3718
irit	-3719
▁chain	-3720
▁quite	-3721
▁repair	-3722
▁hall	-3723
▁either	-3724
uct	-3725
aila	-3726
▁pal	-3727
ccol	-3728
▁energ	-3729
ccoli	-3730
▁recogn	-3731
▁stretch	-3732
▁troubled	-3733
Anna	-3734
▁quar	-3735
reci	-3736
▁marry	-3737
▁chalk	-3738
▁oy	-3739
▁prov	-3740
▁tripped	-3741
▁Ros	-3742
aulif	-3743
▁swinging	-3744
cast	-3745
▁pole	-3746
▁appreci	-3747
▁Ru	-3748
▁Pap	-3749
▁boots	-3750
▁riding	-3751
▁roared	-3752
▁listening	-3753
▁paid	-3754
▁jellyfish	-3755
▁gro	-3756
▁stom	-3757
ailable	-3758
▁dishes	-3759
▁golf	-3760
▁papers	-3761
▁por	-3762
▁cact	-3763
▁shovel	-3764
▁forgave	-3765
year	-3766
▁lip	-3767
▁oat	-3768
▁checked	-3769
▁sandcast	-3770
▁rescue	-3771
▁clapping	-3772
▁rod	-3773
▁scold	-3774
▁shelter	-3775
eer	-3776
▁brus	-3777
▁didnâ	-3778
▁mama	-3779
▁wallet	-3780
cond	-3781
▁bin	-3782
▁inse	-3783
▁buzz	-3784
▁second	-3785
▁available	-3786
▁sock	-3787
▁obser	-3788
▁celery	-3789
happy	-3790
▁shakes	-3791
▁pushing	-3792
▁triangle	-3793
fee	-3794
▁ink	-3795
▁eraser	-3796
▁Lilly	-3797
▁message	-3798
▁peek	-3799
▁grapes	-3800
▁palace	-3801
ffee	-3802
▁alive	-3803
▁caulif	-3804
▁trains	-3805
▁shopkeeper	-3806
▁Papa	-3807
▁trop	-3808
▁colours	-3809
▁falling	-3810
▁knot	-3811
▁feelings	-3812
▁sailor	-3813
▁point	-3814
▁broccoli	-3815
ube	-3816
▁rag	-3817
▁breaks	-3818
▁cactus	-3819
▁costume	-3820
▁country	-3821
▁lear	-3822
▁raft	-3823
▁judge	-3824
▁smells	-3825
▁spirit	-3826
olin	-3827
▁yach	-3828
▁learnt	-3829
▁tuna	-3830
▁laser	-3831
▁softly	-3832
▁summer	-3833
render	-3834
▁trophy	-3835
▁scooter	-3836
ron	-3837
▁luck	-3838
▁onion	-3839
▁shrimp	-3840
▁Jess	-3841
▁putting	-3842
▁climbing	-3843
▁ended	-3844
▁polish	-3845
▁raining	-3846
▁art	-3847
▁men	-3848
▁reind	-3849
▁crystal	-3850
▁Or	-3851
▁mild	-3852
azz	-3853
play	-3854
bul	-3855
reeze	-3856
▁starting	-3857
ucked	-3858
▁rubber	-3859
▁zoomed	-3860
▁visited	-3861
edy	-3862
▁treasures	-3863
▁basketball	-3864
ooped	-3865
▁unhappy	-3866
▁Danny	-3867
▁hoping	-3868
▁sprink	-3869
▁rolling	-3870
▁appl	-3871
▁strugg	-3872
▁Would	-3873
▁energy	-3874
▁given	-3875
▁tube	-3876
▁yacht	-3877
ef	-3878
▁ol	-3879
sist	-3880
▁laund	-3881
▁cauliflower	-3882
▁Kate	-3883
▁pilot	-3884
▁pipe	-3885
aled	-3886
▁ped	-3887
▁laundry	-3888
▁unlock	-3889
▁penguin	-3890
icer	-3891
▁saus	-3892
▁neighbour	-3893
▁cooler	-3894
▁hotel	-3895
▁frame	-3896
▁hadn	-3897
▁reindeer	-3898
▁flies	-3899
▁dive	-3900
▁display	-3901
▁barks	-3902
▁tricks	-3903
▁kay	-3904
▁cups	-3905
▁quit	-3906
▁belt	-3907
▁Baby	-3908
▁short	-3909
Ha	-3910
▁thanks	-3911
▁sweetheart	-3912
▁bul	-3913
ait	-3914
▁disag	-3915
▁bur	-3916
▁Inst	-3917
▁incl	-3918
ecause	-3919
▁peach	-3920
▁coffee	-3921
▁airport	-3922
sely	-3923
kelet	-3924
▁oil	-3925
▁drops	-3926
▁Maggie	-3927
▁evening	-3928
▁film	-3929
▁journal	-3930
▁sym	-3931
▁lawy	-3932
▁shade	-3933
▁throws	-3934
ides	-3935
▁tax	-3936
▁cord	-3937
▁cushion	-3938
▁stuffed	-3939
ney	-3940
▁folder	-3941
▁bulb	-3942
▁lives	-3943
▁pad	-3944
▁skill	-3945
seum	-3946
▁iron	-3947
▁marched	-3948
hino	-3949
▁photo	-3950
▁closely	-3951
pe	-3952
zzy	-3953
▁vend	-3954
▁ambul	-3955
▁bananas	-3956
▁leaned	-3957
nger	-3958
▁tub	-3959
▁panda	-3960
▁Bun	-3961
▁fisher	-3962
▁football	-3963
▁surrender	-3964
ense	-3965
▁insist	-3966
▁museum	-3967
▁planet	-3968
enny	-3969
▁strawberry	-3970
▁fauc	-3971
▁pair	-3972
▁wool	-3973
▁porch	-3974
▁counter	-3975
ges	-3976
keleton	-3977
bol	-3978
▁lend	-3979
▁diary	-3980
ito	-3981
affe	-3982
▁symbol	-3983
▁painter	-3984
▁theater	-3985
▁cherries	-3986
▁ambulance	-3987
▁taxi	-3988
▁ax	-3989
▁James	-3990
▁rhino	-3991
▁swung	-3992
▁complete	-3993
ites	-3994
▁waving	-3995
▁frogs	-3996
▁heads	-3997
▁steak	-3998
▁fields	-3999
▁faucet	-4000
▁apologized	-4001
izes	-4002
▁violin	-4003
..	-4004
▁lie	-4005
ple	-4006
ccer	-4007
mand	-4008
quito	-4009
▁forgotten	-4010
▁reef	-4011
▁insect	-4012
▁plastic	-4013
▁hut	-4014
TMm	-4015
nam	-4016
▁mule	-4017
▁cheek	-4018
€“	-4019
ckey	-4020
▁Miss	-4021
▁page	-4022
▁hockey	-4023
▁powder	-4024
œYou	-4025
▁magaz	-4026
▁soccer	-4027
▁imagine	-4028
▁cable	-4029
▁imagination	-4030
opl	-4031
eropl	-4032
▁shouldn	-4033
▁Tony	-4034
▁lime	-4035
▁aeropl	-4036
Dad	-4037
▁Kat	-4038
▁mos	-4039
▁vet	-4040
▁baking	-4041
ween	-4042
▁Ted	-4043
▁winter	-4044
▁trail	-4045
▁sunset	-4046
aused	-4047
▁skeleton	-4048
▁wife	-4049
▁between	-4050
▁created	-4051
angu	-4052
▁belongs	-4053
▁giraffe	-4054
▁quarrel	-4055
▁vendor	-4056
▁langu	-4057
▁pirates	-4058
▁mosquito	-4059
any	-4060
▁soil	-4061
▁player	-4062
▁sir	-4063
ected	-4064
▁chirp	-4065
▁grocer	-4066
▁axe	-4067
▁kitty	-4068
▁rever	-4069
ctory	-4070
iling	-4071
▁Instead	-4072
ories	-4073
▁points	-4074
aces	-4075
urch	-4076
ues	-4077
▁wipe	-4078
▁breeze	-4079
▁temple	-4080
▁motorcycle	-4081
▁slept	-4082
▁sneak	-4083
▁eagerly	-4084
▁herb	-4085
anic	-4086
▁Rosie	-4087
▁yogurt	-4088
ippery	-4089
▁minute	-4090
▁factory	-4091
nament	-4092
▁shouting	-4093
▁slippery	-4094
▁attention	-4095
▁stud	-4096
▁kayak	-4097
▁lawyer	-4098
▁meeting	-4099
chair	-4100
▁blowing	-4101
▁fisherman	-4102
chanic	-4103
▁mixer	-4104
▁perfectly	-4105
▁cane	-4106
▁novel	-4107
▁ornament	-4108
▁poke	-4109
▁argue	-4110
▁seeing	-4111
▁glowing	-4112
Max	-4113
imi	-4114
▁mechanic	-4115
▁pit	-4116
▁fishing	-4117
▁sprayed	-4118
▁chickens	-4119
spap	-4120
▁seas	-4121
▁offer	-4122
imney	-4123
▁maze	-4124
▁vest	-4125
▁headed	-4126
▁newspap	-4127
men	-4128
▁twink	-4129
▁weather	-4130
▁armchair	-4131
▁napkin	-4132
▁avocado	-4133
▁donâ	-4134
▁skull	-4135
▁blankets	-4136
▁celebrated	-4137
▁rot	-4138
▁sung	-4139
▁chimney	-4140
ison	-4141
place	-4142
▁glove	-4143
▁hopes	-4144
▁itch	-4145
▁zipper	-4146
▁greedy	-4147
iture	-4148
▁flame	-4149
urniture	-4150
▁baseball	-4151
lass	-4152
▁squirrels	-4153
Your	-4154
eterin	-4155
eterinarian	-4156
aud	-4157
▁golden	-4158
▁furniture	-4159
▁flea	-4160
▁video	-4161
▁mystery	-4162
▁toil	-4163
▁moves	-4164
▁shower	-4165
▁Ab	-4166
▁Clara	-4167
▁veterinarian	-4168
ceros	-4169
▁knob	-4170
▁welcomed	-4171
▁doors	-4172
▁oyster	-4173
▁sniffed	-4174
▁petals	-4175
▁wags	-4176
▁parent	-4177
▁kingdom	-4178
▁Jul	-4179
▁follows	-4180
▁toilet	-4181
erc	-4182
▁ble	-4183
▁har	-4184
▁calls	-4185
▁happens	-4186
▁memories	-4187
▁bury	-4188
▁discu	-4189
▁freez	-4190
sing	-4191
▁mop	-4192
▁Mimi	-4193
▁God	-4194
▁junk	-4195
▁tear	-4196
▁hanging	-4197
reek	-4198
▁lawn	-4199
▁writing	-4200
▁rhinoceros	-4201
was	-4202
▁May	-4203
▁creek	-4204
▁lotion	-4205
▁applaud	-4206
mm	-4207
▁vroom	-4208
▁sticky	-4209
unately	-4210
washer	-4211
▁surround	-4212
elcome	-4213
▁reve	-4214
▁sque	-4215
▁fireplace	-4216
▁quack	-4217
▁throwing	-4218
▁miner	-4219
▁dishwasher	-4220
hero	-4221
▁Ste	-4222
▁coal	-4223
▁exerc	-4224
ler	-4225
▁trave	-4226
▁aeroplane	-4227
▁superhero	-4228
▁prun	-4229
▁medal	-4230
▁weigh	-4231
▁popped	-4232
lasses	-4233
▁passport	-4234
▁burned	-4235
▁shoulder	-4236
▁pine	-4237
▁sunglasses	-4238
tain	-4239
▁See	-4240
▁staff	-4241
▁church	-4242
▁ignored	-4243
tress	-4244
▁shrugged	-4245
▁dear	-4246
▁veil	-4247
▁mattress	-4248
▁classroom	-4249
aws	-4250
low	-4251
▁bother	-4252
▁ig	-4253
▁igloo	-4254
rosc	-4255
orses	-4256
▁grin	-4257
▁regret	-4258
iday	-4259
llie	-4260
▁cob	-4261
▁flapped	-4262
▁collected	-4263
▁agre	-4264
▁worth	-4265
▁dancer	-4266
▁crib	-4267
▁First	-4268
▁sailing	-4269
roscope	-4270
▁tug	-4271
▁since	-4272
▁horses	-4273
▁invest	-4274
▁battery	-4275
asis	-4276
ring	-4277
▁crow	-4278
una	-4279
ssible	-4280
▁mistakes	-4281
▁microscope	-4282
▁swamp	-4283
▁language	-4284
▁fought	-4285
▁bouncing	-4286
▁presents	-4287
▁separate	-4288
▁oak	-4289
Timmy	-4290
▁float	-4291
▁skirt	-4292
▁agree	-4293
▁investig	-4294
ety	-4295
▁pastry	-4296
▁streng	-4297
▁quietly	-4298
rod	-4299
web	-4300
▁Iâ	-4301
inked	-4302
right	-4303
▁oasis	-4304
Sam	-4305
case	-4306
▁inf	-4307
▁dressed	-4308
Wait	-4309
ores	-4310
▁cared	-4311
▁eaten	-4312
▁introd	-4313
▁makeup	-4314
▁stable	-4315
▁strength	-4316
▁beef	-4317
▁candles	-4318
▁True	-4319
vision	-4320
▁hol	-4321
▁blackboard	-4322
▁caring	-4323
▁holiday	-4324
▁prevent	-4325
▁magazine	-4326
▁newspaper	-4327
▁alarm	-4328
▁apart	-4329
Because	-4330
▁crawling	-4331
▁Sad	-4332
▁sizes	-4333
▁cobweb	-4334
te	-4335
medi	-4336
▁cell	-4337
▁straight	-4338
▁married	-4339
mediately	-4340
▁scolded	-4341
▁complain	-4342
ggy	-4343
▁choice	-4344
▁snap	-4345
▁coats	-4346
▁rooms	-4347
▁trusted	-4348
▁squeezed	-4349
▁investigate	-4350
▁fog	-4351
anges	-4352
▁pist	-4353
▁accepted	-4354
chie	-4355
omes	-4356
▁gym	-4357
▁pur	-4358
▁Each	-4359
▁Help	-4360
▁thumb	-4361
▁television	-4362
▁weep	-4363
▁berry	-4364
▁pistol	-4365
▁pra	-4366
▁Luck	-4367
▁radish	-4368
▁kisses	-4369
▁whisper	-4370
▁steam	-4371
Qu	-4372
▁Snowy	-4373
ction	-4374
ab	-4375
▁attach	-4376
▁shrink	-4377
▁squeeze	-4378
▁reaches	-4379
▁news	-4380
▁ticket	-4381
▁itâ	-4382
▁yield	-4383
▁puddles	-4384
▁splashing	-4385
▁appro	-4386
▁perfu	-4387
▁Luckily	-4388
▁ceiling	-4389
▁relaxed	-4390
oh	-4391
▁musician	-4392
▁entered	-4393
▁amazement	-4394
▁rake	-4395
Did	-4396
▁sigh	-4397
▁unif	-4398
▁jewelry	-4399
▁blinked	-4400
▁letting	-4401
▁blood	-4402
▁Buzz	-4403
▁licks	-4404
▁teleph	-4405
▁wandered	-4406
▁birdc	-4407
▁castles	-4408
▁wigg	-4409
▁perfume	-4410
ups	-4411
sters	-4412
▁harb	-4413
▁delay	-4414
▁chairs	-4415
▁uniform	-4416
▁birdcage	-4417
mend	-4418
œItâ	-4419
▁stro	-4420
▁easily	-4421
ising	-4422
▁opera	-4423
▁yucky	-4424
▁demand	-4425
ives	-4426
▁helper	-4427
▁suff	-4428
▁firef	-4429
▁telephone	-4430
Sara	-4431
▁yoga	-4432
Thanks	-4433
house	-4434
▁Ruby	-4435
▁hurting	-4436
And	-4437
▁Tina	-4438
▁serve	-4439
omeday	-4440
ommend	-4441
▁blueberries	-4442
hic	-4443
▁Who	-4444
▁raz	-4445
▁rise	-4446
▁growled	-4447
▁bookcase	-4448
chor	-4449
▁pinch	-4450
▁freezer	-4451
▁recommend	-4452
sit	-4453
▁requ	-4454
▁claws	-4455
▁spear	-4456
▁vehic	-4457
▁keeping	-4458
▁cliff	-4459
▁sandcastle	-4460
▁grill	-4461
achel	-4462
▁bathe	-4463
▁chess	-4464
▁crash	-4465
▁waffle	-4466
▁However	-4467
▁sub	-4468
▁puzzles	-4469
▁matches	-4470
▁disappear	-4471
Is	-4472
nce	-4473
cakes	-4474
▁plates	-4475
▁tucked	-4476
▁crossed	-4477
▁mustache	-4478
▁tong	-4479
▁file	-4480
▁ward	-4481
▁Rachel	-4482
▁surprises	-4483
▁conf	-4484
▁rail	-4485
▁harbor	-4486
▁ribbon	-4487
ival	-4488
▁hearts	-4489
▁improve	-4490
▁Katie	-4491
▁trade	-4492
▁planes	-4493
▁wardrobe	-4494
▁si	-4495
▁dried	-4496
▁Freddy	-4497
ived	-4498
▁tut	-4499
alley	-4500
▁mint	-4501
▁wine	-4502
▁below	-4503
▁request	-4504
▁cabinet	-4505
▁Me	-4506
ionary	-4507
▁bill	-4508
▁anchor	-4509
▁vac	-4510
raged	-4511
▁warmth	-4512
▁someday	-4513
▁toes	-4514
▁Poppy	-4515
▁razor	-4516
▁captain	-4517
ictionary	-4518
▁Fo	-4519
▁refre	-4520
▁apron	-4521
▁bleed	-4522
▁incre	-4523
▁poked	-4524
▁dictionary	-4525
amber	-4526
▁valley	-4527
▁scattered	-4528
fortunately	-4529
lier	-4530
▁waste	-4531
▁fuel	-4532
▁boot	-4533
▁pear	-4534
▁kneel	-4535
▁spade	-4536
▁skills	-4537
uch	-4538
▁mass	-4539
ucture	-4540
▁supply	-4541
▁known	-4542
▁safety	-4543
▁structure	-4544
▁People	-4545
▁blouse	-4546
ah	-4547
▁laught	-4548
▁spending	-4549
▁spots	-4550
▁lumber	-4551
▁muffin	-4552
▁lemonade	-4553
▁following	-4554
▁experience	-4555
▁instr	-4556
▁cuddled	-4557
▁dresses	-4558
€.	-4559
▁isn	-4560
▁balan	-4561
▁moments	-4562
▁Ollie	-4563
▁V	-4564
▁aut	-4565
▁Spike	-4566
▁saving	-4567
▁laughter	-4568
▁cub	-4569
▁Milly	-4570
▁Penny	-4571
▁fallen	-4572
'.	-4573
▁ideas	-4574
▁snapped	-4575
▁understanding	-4576
Yuck	-4577
▁myself	-4578
▁fastest	-4579
▁prop	-4580
▁strawberries	-4581
ampoo	-4582
▁airpl	-4583
oral	-4584
alend	-4585
▁calend	-4586
▁tornado	-4587
▁fest	-4588
▁raise	-4589
▁row	-4590
▁worms	-4591
▁jewels	-4592
▁missile	-4593
▁calendar	-4594
▁remove	-4595
▁sneeze	-4596
▁flutter	-4597
▁lugg	-4598
▁Liz	-4599
icing	-4600
▁beans	-4601
▁buried	-4602
▁luggage	-4603
aped	-4604
▁taller	-4605
▁yawned	-4606
▁weap	-4607
▁immediately	-4608
riger	-4609
▁bravely	-4610
▁ringing	-4611
▁sparkling	-4612
▁enter	-4613
rigerator	-4614
▁begged	-4615
▁reverse	-4616
▁refrigerator	-4617
▁bumped	-4618
▁earlier	-4619
▁shampoo	-4620
ero	-4621
▁hits	-4622
▁root	-4623
▁bookshe	-4624
▁rabbits	-4625
▁destroyed	-4626
▁Joy	-4627
▁ignore	-4628
▁infant	-4629
▁port	-4630
▁settled	-4631
▁lic	-4632
Welcome	-4633
▁hardly	-4634
▁dire	-4635
▁appreciate	-4636
vet	-4637
▁Zoe	-4638
▁gear	-4639
▁homes	-4640
▁beamed	-4641
▁washing	-4642
▁rhy	-4643
htray	-4644
▁Have	-4645
▁pages	-4646
▁ashtray	-4647
▁destination	-4648
▁socks	-4649
▁Co	-4650
rm	-4651
▁Its	-4652
▁chores	-4653
▁climbs	-4654
▁chamber	-4655
▁prepare	-4656
anna	-4657
▁tore	-4658
▁signs	-4659
▁hanger	-4660
▁breathe	-4661
▁remain	-4662
▁tutor	-4663
▁cherry	-4664
▁therm	-4665
▁replace	-4666
▁sparkle	-4667
▁palm	-4668
▁invite	-4669
ission	-4670
▁plays	-4671
▁universe	-4672
▁vanished	-4673
▁decorations	-4674
reat	-4675
▁tide	-4676
▁Betsy	-4677
ari	-4678
▁solved	-4679
▁praised	-4680
▁Everyday	-4681
▁permission	-4682
inky	-4683
▁pride	-4684
▁vacation	-4685
▁tongue	-4686
▁bookshelf	-4687
bbie	-4688
▁admir	-4689
▁hills	-4690
▁poison	-4691
▁deeper	-4692
▁sits	-4693
▁scooped	-4694
▁score	-4695
▁examine	-4696
▁stomach	-4697
▁sparkles	-4698
nies	-4699
▁festival	-4700
▁thermomet	-4701
▁insisted	-4702
▁teaching	-4703
omob	-4704
▁Nut	-4705
▁floated	-4706
▁quiz	-4707
▁Steve	-4708
▁crunch	-4709
▁scratch	-4710
bbles	-4711
▁Good	-4712
▁alright	-4713
▁automob	-4714
osed	-4715
▁simp	-4716
xture	-4717
▁mailman	-4718
▁received	-4719
▁difference	-4720
ops	-4721
▁daisy	-4722
▁believed	-4723
▁chirping	-4724
▁thermometer	-4725
▁bang	-4726
▁digg	-4727
▁panic	-4728
▁oranges	-4729
▁floating	-4730
▁patiently	-4731
ents	-4732
▁struggling	-4733
Sp	-4734
▁achie	-4735
▁pulling	-4736
▁digging	-4737
asp	-4738
▁Is	-4739
▁hers	-4740
▁drain	-4741
▁punish	-4742
▁license	-4743
▁model	-4744
▁ranch	-4745
thm	-4746
▁provide	-4747
▁sty	-4748
▁dare	-4749
▁repeat	-4750
▁upstairs	-4751
Ok	-4752
▁Mat	-4753
▁gifts	-4754
▁buzzing	-4755
▁measured	-4756
▁encouraged	-4757
▁Chirp	-4758
▁restore	-4759
antly	-4760
igail	-4761
▁shooting	-4762
▁jail	-4763
▁collection	-4764
▁neighborhood	-4765
▁glo	-4766
▁invit	-4767
▁guy	-4768
▁brain	-4769
▁rhythm	-4770
▁bathrobe	-4771
iers	-4772
▁bites	-4773
▁equ	-4774
▁none	-4775
▁respons	-4776
bey	-4777
TMre	-4778
osity	-4779
sity	-4780
▁includ	-4781
ging	-4782
▁sew	-4783
▁sausage	-4784
▁collecting	-4785
▁King	-4786
▁shot	-4787
▁grape	-4788
▁label	-4789
▁worse	-4790
▁patterns	-4791
▁subway	-4792
▁approached	-4793
rise	-4794
▁Abigail	-4795
▁discuss	-4796
▁mention	-4797
allen	-4798
izard	-4799
▁mall	-4800
▁weeks	-4801
▁elephants	-4802
▁whip	-4803
▁tease	-4804
▁massage	-4805
Mmm	-4806
▁jazz	-4807
▁spaces	-4808
▁sprinkles	-4809
▁sore	-4810
▁melted	-4811
xy	-4812
TMll	-4813
▁Fro	-4814
▁challen	-4815
▁setting	-4816
▁supposed	-4817
▁sip	-4818
▁shed	-4819
act	-4820
▁buckle	-4821
These	-4822
▁unite	-4823
▁sunrise	-4824
▁billboard	-4825
▁girls	-4826
▁bricks	-4827
▁twisted	-4828
ium	-4829
▁leak	-4830
▁oper	-4831
▁exercise	-4832
▁flav	-4833
▁item	-4834
▁spit	-4835
▁meowed	-4836
▁airplane	-4837
▁vehicle	-4838
▁parts	-4839
▁wizard	-4840
allow	-4841
▁discovery	-4842
▁jogging	-4843
▁watches	-4844
▁soldiers	-4845
atch	-4846
fied	-4847
▁fut	-4848
▁hesit	-4849
▁bak	-4850
▁future	-4851
▁poppy	-4852
▁pillows	-4853
shing	-4854
▁glowed	-4855
▁automobile	-4856
▁grey	-4857
▁hate	-4858
ude	-4859
▁university	-4860
▁marbles	-4861
▁gust	-4862
aspoon	-4863
▁sport	-4864
gy	-4865
▁pigs	-4866
▁mister	-4867
▁grocery	-4868
▁teaspoon	-4869
▁whistled	-4870
▁rush	-4871
▁brings	-4872
▁fixing	-4873
▁awe	-4874
▁gain	-4875
▁event	-4876
▁actually	-4877
▁heat	-4878
▁urge	-4879
▁manage	-4880
▁lets	-4881
▁warning	-4882
▁suffer	-4883
▁scratched	-4884
▁Unfortunately	-4885
▁beg	-4886
▁slice	-4887
▁burning	-4888
▁remained	-4889
▁thrilled	-4890
Not	-4891
asc	-4892
cles	-4893
▁seats	-4894
▁grinned	-4895
œNo	-4896
ases	-4897
bers	-4898
▁Jam	-4899
▁growl	-4900
▁paused	-4901
▁surrounded	-4902
umble	-4903
▁problems	-4904
adium	-4905
▁lick	-4906
▁Nutty	-4907
▁sings	-4908
▁stadium	-4909
▁Je	-4910
▁chir	-4911
▁works	-4912
▁zipped	-4913
Would	-4914
▁Sharing	-4915
▁Cat	-4916
▁toe	-4917
▁chirped	-4918
ishing	-4919
▁spill	-4920
▁Someone	-4921
▁nation	-4922
▁weapon	-4923
▁twigs	-4924
▁drinks	-4925
▁drinking	-4926
Ouch	-4927
emember	-4928
▁whistling	-4929
▁rust	-4930
▁scur	-4931
▁cakes	-4932
▁racing	-4933
▁ordered	-4934
▁possible	-4935
▁eff	-4936
▁beat	-4937
▁hurric	-4938
▁strang	-4939
▁tracks	-4940
▁observe	-4941
eed	-4942
▁lect	-4943
▁receive	-4944
▁tour	-4945
▁during	-4946
▁paints	-4947
▁prayed	-4948
▁sneezed	-4949
▁marching	-4950
▁Luna	-4951
▁waffles	-4952
▁laid	-4953
▁watered	-4954
▁decision	-4955
▁hated	-4956
cious	-4957
▁ours	-4958
▁memory	-4959
▁sliding	-4960
▁x	-4961
!",	-4962
▁El	-4963
▁wherever	-4964
▁contain	-4965
▁lecture	-4966
▁potatoes	-4967
Ready	-4968
▁waits	-4969
▁raised	-4970
▁crunchy	-4971
▁screams	-4972
▁spaceship	-4973
▁petted	-4974
▁cartoons	-4975
▁hurricane	-4976
▁invitation	-4977
!'	-4978
▁earthqu	-4979
▁spoons	-4980
▁crashed	-4981
▁olive	-4982
▁satis	-4983
▁lily	-4984
▁warn	-4985
fy	-4986
walk	-4987
ities	-4988
▁fasc	-4989
▁flood	-4990
▁peanuts	-4991
▁skipping	-4992
▁strangers	-4993
▁tomatoes	-4994
▁fed	-4995
▁swims	-4996
▁curled	-4997
▁operation	-4998
oved	-4999
▁mitten	-5000
▁fireworks	-5001
▁pupp	-5002
▁sunlight	-5003
▁recognized	-5004
œThatâ	-5005
▁mineral	-5006
cc	-5007
do	-5008
▁Not	-5009
▁beds	-5010
▁remem	-5011
▁strip	-5012
▁measuring	-5013
hest	-5014
▁vel	-5015
▁chewed	-5016
▁circus	-5017
▁Jan	-5018
▁velvet	-5019
▁disagreed	-5020
▁remembers	-5021
nday	-5022
▁Anne	-5023
▁Sunday	-5024
▁safari	-5025
Sh	-5026
▁planted	-5027
Yum	-5028
▁Frank	-5029
▁Chirpy	-5030
▁kindly	-5031
ipment	-5032
▁lands	-5033
▁mouths	-5034
▁talent	-5035
▁continue	-5036
▁price	-5037
▁easier	-5038
▁admiring	-5039
▁sidewalk	-5040
▁buildings	-5041
▁equipment	-5042
▁wond	-5043
mother	-5044
▁brick	-5045
▁comfy	-5046
▁monsters	-5047
œIâ	-5048
▁bes	-5049
▁secrets	-5050
bbled	-5051
▁fascin	-5052
▁attached	-5053
▁Remy	-5054
▁meow	-5055
▁appear	-5056
▁mountains	-5057
▁flap	-5058
▁tremb	-5059
▁glitter	-5060
▁happiest	-5061
▁fet	-5062
▁escaped	-5063
▁blueberry	-5064
▁folded	-5065
▁refreshed	-5066
Really	-5067
▁bones	-5068
▁effort	-5069
▁clearing	-5070
seek	-5071
▁Chr	-5072
▁Letâ	-5073
▁selling	-5074
",	-5075
▁wre	-5076
▁company	-5077
▁bringing	-5078
son	-5079
▁gaz	-5080
▁apologize	-5081
▁Josh	-5082
▁prepared	-5083
▁Sadly	-5084
▁gloves	-5085
▁revealed	-5086
▁earthquake	-5087
▁Ol	-5088
▁lips	-5089
▁Moral	-5090
▁Uncle	-5091
▁officer	-5092
▁An	-5093
▁beside	-5094
▁wid	-5095
▁navy	-5096
▁obey	-5097
▁weren	-5098
▁onwards	-5099
▁trapped	-5100
▁turning	-5101
▁bleeding	-5102
▁copper	-5103
▁simple	-5104
▁anytime	-5105
▁menu	-5106
▁doggy	-5107
▁weight	-5108
▁six	-5109
▁muddy	-5110
▁guessed	-5111
▁leather	-5112
▁stripes	-5113
enty	-5114
▁precious	-5115
▁reminder	-5116
▁Qu	-5117
▁pets	-5118
▁ladyb	-5119
▁wanting	-5120
▁dinosaurs	-5121
▁waist	-5122
▁slip	-5123
▁Sunny	-5124
zag	-5125
▁gotten	-5126
▁succeeded	-5127
▁Chl	-5128
▁bye	-5129
▁hist	-5130
▁allow	-5131
▁Jamie	-5132
▁steel	-5133
▁history	-5134
▁catching	-5135
aded	-5136
▁keeper	-5137
▁settle	-5138
▁By	-5139
▁peered	-5140
▁firefight	-5141
Spot	-5142
Will	-5143
▁Dav	-5144
▁Beth	-5145
▁cuddle	-5146
▁brand	-5147
To	-5148
▁fash	-5149
▁oats	-5150
œWe	-5151
joyed	-5152
▁served	-5153
▁villag	-5154
▁everyday	-5155
▁overjoyed	-5156
▁freeze	-5157
idges	-5158
▁Chloe	-5159
▁wisdom	-5160
▁Tiny	-5161
▁pies	-5162
▁scoop	-5163
▁gained	-5164
œThank	-5165
▁style	-5166
▁Floppy	-5167
▁permit	-5168
▁rested	-5169
▁rained	-5170
▁perched	-5171
▁eats	-5172
▁pedal	-5173
▁soared	-5174
▁Sure	-5175
▁David	-5176
▁cutting	-5177
▁wonders	-5178
▁image	-5179
▁tastes	-5180
▁shopping	-5181
▁Ke	-5182
▁bowed	-5183
▁eagle	-5184
▁printer	-5185
▁comforted	-5186
One	-5187
igzag	-5188
amb	-5189
▁Am	-5190
▁pupil	-5191
▁wooden	-5192
▁shadows	-5193
▁Ra	-5194
▁rang	-5195
▁bridges	-5196
▁voices	-5197
▁answers	-5198
▁snowball	-5199
▁whatever	-5200
▁Lucky	-5201
▁famil	-5202
▁acorns	-5203
rs	-5204
mble	-5205
▁stealing	-5206
▁Big	-5207
▁fashion	-5208
▁decides	-5209
▁visiting	-5210
anta	-5211
▁drag	-5212
▁hurried	-5213
▁costumes	-5214
▁bene	-5215
▁Spark	-5216
▁stitch	-5217
▁brushed	-5218
▁Something	-5219
▁agreement	-5220
▁writes	-5221
▁downstairs	-5222
oming	-5223
▁emerg	-5224
▁breaking	-5225
ien	-5226
nie	-5227
▁Nina	-5228
▁crept	-5229
▁nails	-5230
len	-5231
▁exact	-5232
▁creation	-5233
▁struggled	-5234
▁villagers	-5235
▁responsible	-5236
▁Hanna	-5237
▁Hoppy	-5238
▁ripped	-5239
▁twirling	-5240
▁beneath	-5241
▁sadness	-5242
▁curiosity	-5243
▁disturbed	-5244
▁Pr	-5245
ding	-5246
icorn	-5247
▁emergen	-5248
▁unicorn	-5249
▁underground	-5250
▁pitch	-5251
▁bun	-5252
▁tip	-5253
izing	-5254
neath	-5255
▁tremble	-5256
▁weighed	-5257
▁accidents	-5258
▁mice	-5259
▁Julie	-5260
▁These	-5261
▁pancakes	-5262
▁Lu	-5263
gen	-5264
▁Suzy	-5265
▁chef	-5266
▁comple	-5267
▁Bubbles	-5268
▁firemen	-5269
▁practicing	-5270
ays	-5271
▁Car	-5272
▁Santa	-5273
iggy	-5274
isten	-5275
▁Betty	-5276
▁neighbors	-5277
▁3-	-5278
terday	-5279
▁examined	-5280
▁vict	-5281
xygen	-5282
▁Tilly	-5283
▁doctors	-5284
▁grandmother	-5285
▁bare	-5286
▁died	-5287
▁argued	-5288
▁lemons	-5289
▁decorated	-5290
ira	-5291
▁Lul	-5292
▁begin	-5293
▁claps	-5294
▁knelt	-5295
▁rides	-5296
▁network	-5297
▁spiders	-5298
▁padd	-5299
▁owned	-5300
▁Pip	-5301
▁Like	-5302
▁soak	-5303
▁sting	-5304
▁Cla	-5305
▁ladybug	-5306
▁recognize	-5307
ales	-5308
▁realize	-5309
▁beha	-5310
▁peel	-5311
▁activ	-5312
▁yelling	-5313
rr	-5314
ishes	-5315
▁area	-5316
▁bend	-5317
▁Jessie	-5318
anny	-5319
▁inch	-5320
▁zero	-5321
▁keeps	-5322
Goodbye	-5323
▁Mil	-5324
▁Rob	-5325
▁rele	-5326
▁pinched	-5327
She	-5328
▁Ad	-5329
▁situ	-5330
▁prune	-5331
▁mission	-5332
▁encourage	-5333
uing	-5334
ashed	-5335
▁snail	-5336
va	-5337
ffic	-5338
▁keys	-5339
▁winning	-5340
rol	-5341
▁exit	-5342
▁ruin	-5343
▁wondering	-5344
▁Bir	-5345
▁Yes	-5346
▁accom	-5347
▁jogged	-5348
▁exactly	-5349
▁traffic	-5350
▁wagging	-5351
ley	-5352
mare	-5353
▁Abby	-5354
▁loose	-5355
▁olives	-5356
▁studied	-5357
▁zooming	-5358
▁stirring	-5359
▁For	-5360
▁Kay	-5361
▁tune	-5362
▁lines	-5363
▁pastel	-5364
▁zigzag	-5365
riage	-5366
▁cape	-5367
▁sneaked	-5368
▁wreck	-5369
▁tugged	-5370
▁release	-5371
▁satisfied	-5372
ib	-5373
▁eight	-5374
▁siren	-5375
▁oxygen	-5376
▁bunnies	-5377
▁tickets	-5378
looking	-5379
gers	-5380
▁unlocked	-5381
▁underneath	-5382
Or	-5383
Daddy	-5384
▁ago	-5385
▁challenge	-5386
Ye	-5387
▁honk	-5388
▁outdo	-5389
▁Claire	-5390
▁landsc	-5391
▁buckets	-5392
▁slapped	-5393
▁instruct	-5394
▁nightmare	-5395
▁fascinated	-5396
▁caut	-5397
▁nicer	-5398
▁accompl	-5399
▁web	-5400
▁Stop	-5401
▁shivering	-5402
▁Mart	-5403
▁loving	-5404
▁pockets	-5405
▁stretching	-5406
▁piles	-5407
▁Hannah	-5408
▁punished	-5409
▁Carl	-5410
▁dent	-5411
▁solut	-5412
▁mittens	-5413
▁planned	-5414
▁protected	-5415
▁neighbourhood	-5416
zen	-5417
▁competition	-5418
▁Lulu	-5419
▁draws	-5420
▁properly	-5421
▁gathering	-5422
▁items	-5423
▁Afterwards	-5424
▁Ha	-5425
▁control	-5426
▁supplies	-5427
▁emergency	-5428
▁Thom	-5429
▁lied	-5430
▁shoulders	-5431
indy	-5432
▁parked	-5433
▁travell	-5434
▁Mad	-5435
▁sights	-5436
▁Susan	-5437
▁soaring	-5438
▁landscape	-5439
ik	-5440
œCan	-5441
▁perfor	-5442
▁markers	-5443
kins	-5444
œDon	-5445
▁Itâ	-5446
▁Coco	-5447
▁deser	-5448
▁fetch	-5449
▁pearl	-5450
▁ruler	-5451
▁Out	-5452
▁bouncy	-5453
▁frosting	-5454
ica	-5455
▁ann	-5456
▁struck	-5457
▁touching	-5458
▁instructions	-5459
▁burrow	-5460
.'	-5461
Happy	-5462
▁Matt	-5463
▁loaded	-5464
▁peaches	-5465
▁printed	-5466
inda	-5467
▁sisters	-5468
thank	-5469
▁foods	-5470
▁barely	-5471
▁muscles	-5472
▁introduc	-5473
œLook	-5474
▁marks	-5475
bbing	-5476
▁opin	-5477
▁crumb	-5478
▁drift	-5479
▁stole	-5480
▁mixing	-5481
▁victory	-5482
▁increase	-5483
▁dam	-5484
agull	-5485
▁tonight	-5486
▁rainbows	-5487
▁applauded	-5488
▁mast	-5489
▁budge	-5490
▁frozen	-5491
▁silence	-5492
ury	-5493
bric	-5494
▁une	-5495
▁east	-5496
▁sides	-5497
▁Rabbit	-5498
▁fabric	-5499
▁rocked	-5500
▁strings	-5501
▁Did	-5502
▁Thomas	-5503
▁ourselves	-5504
Mama	-5505
▁rubbing	-5506
▁teasing	-5507
€”	-5508
▁vent	-5509
▁giggling	-5510
▁guns	-5511
▁soaked	-5512
▁Mira	-5513
▁seagull	-5514
▁outdoors	-5515
aky	-5516
ena	-5517
tiest	-5518
▁bank	-5519
▁planets	-5520
▁prettiest	-5521
▁released	-5522
▁completed	-5523
edding	-5524
uesday	-5525
▁chases	-5526
▁bottles	-5527
▁brushes	-5528
▁dragons	-5529
▁pouring	-5530
▁scurried	-5531
▁sweeties	-5532
▁bunch	-5533
▁pears	-5534
▁vowed	-5535
▁prints	-5536
▁season	-5537
▁1	-5538
oed	-5539
▁west	-5540
▁stair	-5541
▁movies	-5542
▁purred	-5543
▁Tuesday	-5544
▁surface	-5545
bies	-5546
▁Hop	-5547
▁tim	-5548
▁poking	-5549
▁bloomed	-5550
▁demanded	-5551
nes	-5552
▁letâ	-5553
▁baked	-5554
▁tickle	-5555
▁introduce	-5556
ux	-5557
ateri	-5558
▁steep	-5559
▁materi	-5560
▁camping	-5561
▁discovering	-5562
▁broom	-5563
imy	-5564
▁Jeff	-5565
▁sighs	-5566
▁winner	-5567
uctantly	-5568
▁dragged	-5569
▁muffins	-5570
Ex	-5571
▁Jon	-5572
ednes	-5573
▁babies	-5574
ednesday	-5575
▁catches	-5576
▁Ju	-5577
▁urged	-5578
▁machines	-5579
▁Wednesday	-5580
▁mentioned	-5581
Mia	-5582
zie	-5583
▁Gr	-5584
▁lux	-5585
▁Slow	-5586
▁da	-5587
icked	-5588
œThis	-5589
œHello	-5590
▁herbs	-5591
▁beard	-5592
▁roaring	-5593
▁singer	-5594
▁confident	-5595
▁screaming	-5596
ora	-5597
▁guys	-5598
▁Jenna	-5599
▁cones	-5600
▁project	-5601
▁interest	-5602
▁Lou	-5603
▁drives	-5604
▁stamps	-5605
▁horns	-5606
avi	-5607
jam	-5608
▁powers	-5609
▁pretends	-5610
▁Jones	-5611
▁texture	-5612
though	-5613
▁passing	-5614
ern	-5615
▁crowd	-5616
▁contest	-5617
ason	-5618
▁Both	-5619
▁chips	-5620
▁goals	-5621
▁wound	-5622
▁ranger	-5623
▁ribbons	-5624
▁studying	-5625
▁balancing	-5626
Ah	-5627
▁Adam	-5628
▁expect	-5629
▁result	-5630
▁matched	-5631
▁disagree	-5632
▁sausages	-5633
▁pout	-5634
▁Lizzy	-5635
▁sorted	-5636
▁marriage	-5637
▁cal	-5638
▁curly	-5639
▁highest	-5640
▁Pipp	-5641
▁gazed	-5642
▁suitc	-5643
▁kicking	-5644
▁pebbles	-5645
▁cuts	-5646
▁forgi	-5647
▁shock	-5648
▁patience	-5649
▁reluctantly	-5650
▁shelves	-5651
▁shivered	-5652
▁chat	-5653
▁strike	-5654
▁hugging	-5655
▁repeated	-5656
▁ge	-5657
▁Linda	-5658
fit	-5659
▁Zoom	-5660
▁youth	-5661
▁waiter	-5662
▁curtains	-5663
▁acted	-5664
▁fault	-5665
▁sway	-5666
▁grant	-5667
▁wedding	-5668
▁flags	-5669
▁plenty	-5670
die	-5671
▁Luke	-5672
▁figured	-5673
xp	-5674
▁ti	-5675
▁Bye	-5676
▁Cindy	-5677
▁Always	-5678
▁matching	-5679
▁goodnight	-5680
Somet	-5681
▁threat	-5682
▁paintings	-5683
▁twinkling	-5684
▁fart	-5685
▁outfit	-5686
▁cautious	-5687
▁included	-5688
eezing	-5689
▁dusty	-5690
▁slimy	-5691
▁chewing	-5692
▁policeman	-5693
▁regretted	-5694
Joh	-5695
esome	-5696
▁entire	-5697
▁sweets	-5698
▁theirs	-5699
▁solution	-5700
▁introduced	-5701
▁Mon	-5702
▁towels	-5703
Remember	-5704
▁sorting	-5705
▁blooming	-5706
▁penguins	-5707
▁situation	-5708
irts	-5709
ledge	-5710
usted	-5711
▁thro	-5712
xpected	-5713
▁recorded	-5714
▁Kayla	-5715
▁guest	-5716
▁stare	-5717
▁Slowly	-5718
▁throat	-5719
▁include	-5720
you	-5721
ults	-5722
ivery	-5723
▁flat	-5724
▁achieve	-5725
▁rocking	-5726
uly	-5727
hins	-5728
▁unexpected	-5729
Uh	-5730
bl	-5731
mas	-5732
bert	-5733
▁heel	-5734
▁Christ	-5735
▁knowledge	-5736
▁Lizz	-5737
▁Milo	-5738
▁canâ	-5739
▁Suzie	-5740
▁prunes	-5741
▁dentist	-5742
igi	-5743
▁blink	-5744
▁agrees	-5745
▁rescued	-5746
▁cheering	-5747
▁sticking	-5748
▁librarian	-5749
cuse	-5750
▁snugg	-5751
▁truly	-5752
▁staring	-5753
▁spraying	-5754
...	-5755
jamas	-5756
▁roots	-5757
▁luxury	-5758
▁awesome	-5759
vin	-5760
Yeah	-5761
œDonâ	-5762
▁completely	-5763
iar	-5764
hell	-5765
▁ast	-5766
itely	-5767
▁caused	-5768
▁written	-5769
▁homework	-5770
▁Aunt	-5771
▁motion	-5772
▁lap	-5773
▁uses	-5774
▁learns	-5775
▁arguing	-5776
▁growling	-5777
▁boom	-5778
▁creating	-5779
▁Christmas	-5780
▁zookeeper	-5781
▁importance	-5782
Al	-5783
Excuse	-5784
▁Lizzie	-5785
▁bravery	-5786
▁trembling	-5787
▁wandering	-5788
hello	-5789
▁Jazz	-5790
▁exha	-5791
▁dared	-5792
▁roads	-5793
▁shined	-5794
▁Mel	-5795
▁slap	-5796
▁scales	-5797
▁workers	-5798
▁crackers	-5799
▁delivery	-5800
go	-5801
oys	-5802
njoy	-5803
▁rolls	-5804
▁arrive	-5805
▁direction	-5806
œOh	-5807
vers	-5808
immer	-5809
▁Tess	-5810
▁safer	-5811
▁reaching	-5812
▁replac	-5813
▁kneeled	-5814
asm	-5815
▁bead	-5816
▁belly	-5817
▁Nick	-5818
▁comm	-5819
▁scra	-5820
▁wires	-5821
▁snakes	-5822
▁struggle	-5823
boat	-5824
▁expected	-5825
▁exhausted	-5826
▁healed	-5827
▁ventured	-5828
▁organizing	-5829
Gra	-5830
opes	-5831
▁mane	-5832
▁wink	-5833
Mum	-5834
une	-5835
▁Gigi	-5836
lowers	-5837
▁greet	-5838
▁crumbs	-5839
▁becoming	-5840
lee	-5841
Mummy	-5842
ences	-5843
▁Lena	-5844
▁lamb	-5845
▁Leave	-5846
▁crabs	-5847
▁usual	-5848
▁flames	-5849
▁dolphins	-5850
▁Ex	-5851
oline	-5852
▁Johnson	-5853
▁pajamas	-5854
▁inviting	-5855
▁Mick	-5856
angled	-5857
▁leader	-5858
▁worries	-5859
irm	-5860
When	-5861
▁Two	-5862
▁owners	-5863
▁united	-5864
▁storekeeper	-5865
▁Ma	-5866
œWhy	-5867
▁Buzzy	-5868
▁Pandy	-5869
▁baker	-5870
▁relief	-5871
▁packing	-5872
▁pencils	-5873
▁heav	-5874
John	-5875
▁Dolly	-5876
▁Happy	-5877
▁Y	-5878
▁boo	-5879
▁firm	-5880
▁pots	-5881
▁Julia	-5882
▁timer	-5883
▁traveled	-5884
▁polishing	-5885
▁cash	-5886
▁fairies	-5887
▁suitcase	-5888
▁Nan	-5889
▁youâ	-5890
▁closes	-5891
▁cough	-5892
▁partic	-5893
▁worker	-5894
▁rockets	-5895
▁Momo	-5896
▁trips	-5897
▁direct	-5898
▁patted	-5899
▁vanish	-5900
▁peeking	-5901
▁radishes	-5902
Just	-5903
▁Quack	-5904
▁seems	-5905
▁wasnâ	-5906
▁prayer	-5907
▁valued	-5908
▁quacked	-5909
▁Fox	-5910
▁Finn	-5911
▁fara	-5912
▁misses	-5913
▁faraway	-5914
▁startled	-5915
iding	-5916
▁cent	-5917
▁countryside	-5918
▁itchy	-5919
▁Friend	-5920
▁photos	-5921
▁melting	-5922
▁flavor	-5923
▁Jessica	-5924
▁usually	-5925
▁groceries	-5926
▁reveal	-5927
▁wiggled	-5928
Sometimes	-5929
▁restored	-5930
▁interested	-5931
▁cans	-5932
▁fuzzy	-5933
▁stern	-5934
▁removed	-5935
▁balanced	-5936
ords	-5937
▁Che	-5938
▁Tara	-5939
▁scru	-5940
▁Being	-5941
▁seesaw	-5942
▁knights	-5943
▁resting	-5944
▁stem	-5945
▁chuck	-5946
▁opening	-5947
▁teaches	-5948
Bad	-5949
Fine	-5950
▁risk	-5951
▁wrist	-5952
▁winked	-5953
▁cracked	-5954
▁opinion	-5955
ids	-5956
▁cous	-5957
▁leap	-5958
▁desert	-5959
▁sneaky	-5960
▁everybody	-5961
▁rubs	-5962
▁hissed	-5963
▁twinkle	-5964
▁observed	-5965
pite	-5966
▁unf	-5967
▁cott	-5968
▁sled	-5969
▁cause	-5970
▁particular	-5971
▁den	-5972
▁lined	-5973
▁poems	-5974
▁roses	-5975
▁seven	-5976
▁pastels	-5977
▁princesses	-5978
▁Follow	-5979
▁signed	-5980
▁tickled	-5981
▁Jac	-5982
▁faced	-5983
▁tractor	-5984
▁activities	-5985
▁magnets	-5986
brush	-5987
▁swooped	-5988
▁seashell	-5989
▁snowballs	-5990
Run	-5991
dies	-5992
rance	-5993
▁Doggy	-5994
▁reply	-5995
▁silent	-5996
▁wasted	-5997
umm	-5998
▁cubes	-5999
▁rings	-6000
▁adding	-6001
▁single	-6002
▁staying	-6003
▁beads	-6004
▁coloured	-6005
▁replaced	-6006
▁sandcastles	-6007
▁hi	-6008
▁kites	-6009
▁swirl	-6010
▁marker	-6011
▁stolen	-6012
▁tricked	-6013
▁provided	-6014
▁firefighters	-6015
▁Sorry	-6016
▁Sophia	-6017
▁remote	-6018
▁farther	-6019
▁however	-6020
▁Put	-6021
isies	-6022
▁Larry	-6023
▁freed	-6024
▁ga	-6025
Then	-6026
▁Emmy	-6027
▁naps	-6028
▁daisies	-6029
▁lung	-6030
œWhatâ	-6031
▁wears	-6032
▁dipped	-6033
▁paddled	-6034
▁lollipops	-6035
▁bowls	-6036
▁spike	-6037
▁cashier	-6038
▁Days	-6039
▁Earth	-6040
▁Jacob	-6041
▁colored	-6042
▁pastries	-6043
▁Enjoy	-6044
▁badge	-6045
ctar	-6046
▁Keep	-6047
▁nectar	-6048
▁sobbed	-6049
▁Without	-6050
▁celebration	-6051
▁Ow	-6052
coat	-6053
▁Many	-6054
▁logs	-6055
▁slam	-6056
œMommy	-6057
▁minerals	-6058
▁Everybody	-6059
▁protecting	-6060
▁aff	-6061
▁copy	-6062
▁liqu	-6063
▁Jacky	-6064
▁awake	-6065
▁marked	-6066
▁stroll	-6067
▁tallest	-6068
▁darkness	-6069
▁squealed	-6070
▁ty	-6071
▁snat	-6072
▁Rover	-6073
▁bumpy	-6074
▁smiley	-6075
▁filling	-6076
▁forehead	-6077
▁splashes	-6078
abel	-6079
▁Bess	-6080
▁robb	-6081
▁wipes	-6082
▁helmets	-6083
▁talented	-6084
bbly	-6085
hile	-6086
▁Maya	-6087
▁gems	-6088
▁twin	-6089
▁masks	-6090
▁younger	-6091
▁cautiously	-6092
tle	-6093
▁gaze	-6094
▁stays	-6095
▁Nothing	-6096
▁glasses	-6097
▁yourselves	-6098
yond	-6099
▁wow	-6100
▁blows	-6101
▁reads	-6102
▁beyond	-6103
▁covers	-6104
▁polished	-6105
▁raincoat	-6106
▁explorers	-6107
▁directions	-6108
▁tipt	-6109
▁health	-6110
boo	-6111
ddled	-6112
▁cust	-6113
▁Watch	-6114
▁Water	-6115
▁sweat	-6116
▁attack	-6117
▁actions	-6118
▁listens	-6119
▁Exc	-6120
▁Squ	-6121
▁miles	-6122
▁entrance	-6123
▁sailboat	-6124
▁fluttered	-6125
▁accomplish	-6126
▁Robby	-6127
▁behavi	-6128
▁pedals	-6129
▁chuckled	-6130
▁families	-6131
hee	-6132
▁Get	-6133
▁Jay	-6134
▁dots	-6135
▁refle	-6136
▁clowns	-6137
▁secure	-6138
▁mushrooms	-6139
▁yesterday	-6140
fl	-6141
▁knees	-6142
▁tricky	-6143
▁somebody	-6144
▁speaking	-6145
sty	-6146
cers	-6147
affes	-6148
▁bars	-6149
▁buying	-6150
▁custom	-6151
▁joking	-6152
▁seeker	-6153
▁Excited	-6154
iki	-6155
▁opp	-6156
▁conn	-6157
▁ripe	-6158
▁Pinky	-6159
▁hider	-6160
▁insects	-6161
ppers	-6162
▁bumps	-6163
▁froze	-6164
▁cheeks	-6165
▁knocks	-6166
▁Olive	-6167
▁parties	-6168
▁giraffes	-6169
▁beginning	-6170
▁̃	-6171
ners	-6172
▁mes	-6173
▁liquid	-6174
▁mesmer	-6175
▁Lau	-6176
▁Lia	-6177
Tommy	-6178
itches	-6179
▁thorn	-6180
▁scaring	-6181
▁pleasure	-6182
▁determination	-6183
uzz	-6184
▁mi	-6185
▁Bird	-6186
▁Mikey	-6187
▁backed	-6188
▁videos	-6189
▁candies	-6190
▁folding	-6191
▁handful	-6192
▁scarves	-6193
▁drums	-6194
▁Sparky	-6195
▁paddle	-6196
▁leading	-6197
▁recording	-6198
Ro	-6199
Jack	-6200
iles	-6201
ouch	-6202
▁deal	-6203
▁mixture	-6204
▁pause	-6205
▁arrows	-6206
▁glee	-6207
▁choices	-6208
▁instrum	-6209
▁tangled	-6210
alph	-6211
band	-6212
Those	-6213
▁tasks	-6214
▁lighter	-6215
▁weeping	-6216
▁Mo	-6217
▁lower	-6218
▁piggy	-6219
▁sense	-6220
▁yells	-6221
▁calmed	-6222
▁pouted	-6223
▁improved	-6224
▁recommended	-6225
urry	-6226
igers	-6227
▁click	-6228
▁Robert	-6229
eke	-6230
ths	-6231
▁Far	-6232
▁rusty	-6233
▁cupcakes	-6234
lay	-6235
▁insp	-6236
▁Laura	-6237
▁fever	-6238
▁salty	-6239
▁paying	-6240
▁snatched	-6241
▁def	-6242
arter	-6243
arling	-6244
▁Ralph	-6245
▁steer	-6246
▁bakery	-6247
▁Cu	-6248
vest	-6249
▁Prin	-6250
▁rumble	-6251
▁bedtime	-6252
▁ruining	-6253
Rex	-6254
▁Amel	-6255
▁diving	-6256
▁widened	-6257
▁hesitated	-6258
▁celebrating	-6259
icky	-6260
indr	-6261
▁Gina	-6262
▁Hoot	-6263
▁kicks	-6264
▁raindr	-6265
▁snowmen	-6266
▁afterwards	-6267
?",	-6268
rig	-6269
rious	-6270
▁behaved	-6271
▁jackets	-6272
▁smarter	-6273
aker	-6274
▁wins	-6275
▁snuck	-6276
▁stroked	-6277
▁flapping	-6278
▁Pam	-6279
▁lun	-6280
▁squares	-6281
▁Sque	-6282
▁Binky	-6283
▁dances	-6284
▁objects	-6285
no	-6286
iled	-6287
sequ	-6288
▁cowb	-6289
▁shirts	-6290
Ch	-6291
▁impo	-6292
▁Mabel	-6293
▁annoy	-6294
▁unpacked	-6295
▁performan	-6296
▁impossible	-6297
ans	-6298
ishy	-6299
▁Todd	-6300
▁Bluey	-6301
▁tigers	-6302
▁consequ	-6303
▁stomped	-6304
oey	-6305
Next	-6306
bell	-6307
cope	-6308
▁acting	-6309
▁creamy	-6310
▁hallway	-6311
▁achieved	-6312
▁delivered	-6313
▁aren	-6314
▁choo	-6315
▁rule	-6316
ronaut	-6317
▁tramp	-6318
▁artist	-6319
▁deserve	-6320
▁astronaut	-6321
▁materials	-6322
atur	-6323
▁noon	-6324
igning	-6325
▁Wally	-6326
▁noses	-6327
▁indeed	-6328
▁rip	-6329
ccoon	-6330
▁pans	-6331
itched	-6332
▁chefs	-6333
▁temper	-6334
▁wouldnâ	-6335
▁ornaments	-6336
▁raindrops	-6337
▁Ash	-6338
▁raccoon	-6339
Shh	-6340
▁Els	-6341
▁sibl	-6342
▁wraps	-6343
▁Frosty	-6344
▁pointy	-6345
▁needles	-6346
▁basement	-6347
▁siblings	-6348
▁scratches	-6349
▁complained	-6350
▁complaining	-6351
tuce	-6352
ility	-6353
ivity	-6354
▁Abbie	-6355
▁losing	-6356
▁lettuce	-6357
▁Princess	-6358
?'	-6359
▁hus	-6360
▁June	-6361
▁sale	-6362
▁Sadie	-6363
▁tempt	-6364
▁Robbie	-6365
▁darker	-6366
▁drifted	-6367
▁scrubbed	-6368
▁trampoline	-6369
cl	-6370
oni	-6371
▁refu	-6372
▁burst	-6373
▁meals	-6374
▁passen	-6375
▁travelled	-6376
▁fluttering	-6377
weet	-6378
▁Cra	-6379
▁dads	-6380
ndpare	-6381
▁Martha	-6382
▁screws	-6383
▁teased	-6384
aren	-6385
rigued	-6386
▁puppies	-6387
▁experien	-6388
▁swimsuit	-6389
▁discussed	-6390
▁creativity	-6391
▁consequences	-6392
▁Po	-6393
▁Kiki	-6394
▁chop	-6395
▁Thanks	-6396
▁forgets	-6397
▁neither	-6398
ekend	-6399
▁merry	-6400
▁stool	-6401
umbling	-6402
▁weekend	-6403
▁wrapping	-6404
œDo	-6405
▁coup	-6406
▁helpers	-6407
▁grandpare	-6408
▁stung	-6409
▁including	-6410
▁gracefully	-6411
▁performance	-6412
ades	-6413
œWow	-6414
▁fears	-6415
▁Goodbye	-6416
▁tiptoed	-6417
▁tunnels	-6418
ded	-6419
▁Li	-6420
▁mer	-6421
Great	-6422
▁Karen	-6423
▁avoid	-6424
▁stain	-6425
▁third	-6426
▁cuddly	-6427
▁dollars	-6428
▁enthusi	-6429
▁temperature	-6430
▁Q	-6431
ept	-6432
▁wonâ	-6433
anging	-6434
▁Along	-6435
▁gross	-6436
▁source	-6437
▁enthusiasm	-6438
Today	-6439
itted	-6440
▁fact	-6441
▁hearing	-6442
▁separated	-6443
▁growls	-6444
▁neatly	-6445
immering	-6446
▁Although	-6447
▁coloring	-6448
▁handsome	-6449
▁shrinking	-6450
oke	-6451
▁Abi	-6452
œCome	-6453
▁limes	-6454
▁During	-6455
▁afford	-6456
▁couple	-6457
▁onions	-6458
▁husband	-6459
▁zipping	-6460
anes	-6461
atul	-6462
step	-6463
ueen	-6464
▁ech	-6465
river	-6466
▁chip	-6467
▁hides	-6468
▁Farmer	-6469
▁rising	-6470
▁rivers	-6471
▁snowfl	-6472
▁accomplishment	-6473
cus	-6474
Meow	-6475
▁Zoey	-6476
uggles	-6477
▁cousin	-6478
▁slices	-6479
▁dollhouse	-6480
ky	-6481
ntil	-6482
▁Judy	-6483
▁bully	-6484
▁plans	-6485
▁swept	-6486
▁windy	-6487
▁beloved	-6488
▁grabbing	-6489
▁promises	-6490
Ew	-6491
int	-6492
choo	-6493
▁gri	-6494
▁beam	-6495
▁Janie	-6496
▁Patty	-6497
▁Until	-6498
▁horiz	-6499
▁grassy	-6500
▁peacefully	-6501
pr	-6502
hog	-6503
▁cor	-6504
▁Snuggles	-6505
▁blocking	-6506
▁rewarded	-6507
▁Bee	-6508
▁bows	-6509
▁nine	-6510
▁Amelia	-6511
▁thrown	-6512
▁horizon	-6513
▁batteries	-6514
▁sprinkled	-6515
Roar	-6516
weed	-6517
arshm	-6518
▁Davey	-6519
▁damage	-6520
▁players	-6521
▁willing	-6522
▁students	-6523
arshmallow	-6524
Have	-6525
▁todd	-6526
▁Those	-6527
▁among	-6528
▁dreamt	-6529
▁muscle	-6530
▁leaning	-6531
▁matters	-6532
▁neighbours	-6533
Oops	-6534
Whee	-6535
▁Zip	-6536
▁aud	-6537
▁pecked	-6538
▁recipe	-6539
▁darling	-6540
▁napkins	-6541
▁backwards	-6542
▁Ry	-6543
iece	-6544
▁tails	-6545
▁bodies	-6546
▁seconds	-6547
▁wishing	-6548
▁forgiven	-6549
▁wept	-6550
▁Since	-6551
▁hitting	-6552
▁seaweed	-6553
▁printing	-6554
▁decorating	-6555
œHi	-6556
▁hour	-6557
▁alien	-6558
▁prett	-6559
▁heading	-6560
▁planning	-6561
▁dod	-6562
▁Tuna	-6563
▁reass	-6564
▁buzzed	-6565
▁feeding	-6566
▁gobbled	-6567
▁praying	-6568
▁Birthday	-6569
▁starfish	-6570
the	-6571
▁Sim	-6572
œYouâ	-6573
▁center	-6574
▁concer	-6575
▁triangles	-6576
▁gasp	-6577
▁repa	-6578
▁Nobody	-6579
▁dancers	-6580
▁heavier	-6581
▁snuggle	-6582
▁prettier	-6583
▁rustling	-6584
Woof	-6585
▁pops	-6586
▁drawn	-6587
▁forks	-6588
▁Listen	-6589
▁Mickey	-6590
▁repaired	-6591
▁warnings	-6592
▁requested	-6593
▁surroundings	-6594
wk	-6595
▁10	-6596
▁Sun	-6597
▁det	-6598
▁uns	-6599
▁Queen	-6600
▁spong	-6601
▁streets	-6602
▁designed	-6603
▁hedgehog	-6604
ados	-6605
▁arr	-6606
▁die	-6607
▁twice	-6608
▁slower	-6609
▁Remember	-6610
▁treehouse	-6611
▁touc	-6612
▁woof	-6613
▁plain	-6614
▁Stella	-6615
▁poster	-6616
▁wiping	-6617
▁magician	-6618
Le	-6619
fus	-6620
arrow	-6621
itude	-6622
▁Back	-6623
▁Boun	-6624
▁ache	-6625
▁hawk	-6626
▁lungs	-6627
▁slammed	-6628
▁vanilla	-6629
▁embarrass	-6630
eds	-6631
fall	-6632
ippy	-6633
ongr	-6634
irrel	-6635
▁thud	-6636
▁hesitant	-6637
▁creations	-6638
▁intrigued	-6639
▁forgetting	-6640
▁marshmallow	-6641
▁superheroes	-6642
Time	-6643
ments	-6644
▁adult	-6645
▁ropes	-6646
▁counts	-6647
▁avocados	-6648
▁spoonful	-6649
▁sy	-6650
▁skunk	-6651
▁potion	-6652
ongratul	-6653
▁audience	-6654
▁Dr	-6655
▁Sc	-6656
▁Owl	-6657
▁wag	-6658
▁flas	-6659
▁nood	-6660
ausing	-6661
▁scamp	-6662
▁borrowed	-6663
▁resisted	-6664
▁spreading	-6665
ably	-6666
▁focu	-6667
▁blast	-6668
▁geese	-6669
▁stands	-6670
▁toddler	-6671
▁breathed	-6672
Boo	-6673
Lila	-6674
▁Ang	-6675
ently	-6676
ition	-6677
▁pens	-6678
▁softer	-6679
▁sponge	-6680
▁swords	-6681
▁warmer	-6682
▁familiar	-6683
llen	-6684
▁san	-6685
▁joyful	-6686
▁Friends	-6687
▁presses	-6688
▁imagining	-6689
▁delivering	-6690
--	-6691
cake	-6692
▁Ryan	-6693
▁Pippin	-6694
▁screwd	-6695
▁peppers	-6696
▁scraped	-6697
▁touches	-6698
ido	-6699
▁Eva	-6700
▁age	-6701
▁Stan	-6702
▁pours	-6703
▁throughout	-6704
endy	-6705
▁nibb	-6706
▁munch	-6707
▁honked	-6708
▁squeak	-6709
▁zebras	-6710
▁changing	-6711
▁mesmerized	-6712
▁firefighter	-6713
eal	-6714
Yummy	-6715
▁Zara	-6716
▁baths	-6717
▁glued	-6718
▁polar	-6719
▁roars	-6720
▁shops	-6721
▁talks	-6722
▁wrink	-6723
▁sports	-6724
▁focused	-6725
▁remembering	-6726
▁screwdriver	-6727
opsy	-6728
▁sank	-6729
▁Momma	-6730
▁corners	-6731
▁dropping	-6732
▁whispers	-6733
▁curiously	-6734
▁nur	-6735
aster	-6736
▁least	-6737
▁lifts	-6738
▁swall	-6739
▁swallowed	-6740
ael	-6741
▁Fido	-6742
▁Only	-6743
▁puff	-6744
ichael	-6745
ounced	-6746
▁Maddy	-6747
▁mints	-6748
▁Granny	-6749
▁express	-6750
▁granted	-6751
▁blinking	-6752
▁Meg	-6753
▁Bessie	-6754
▁spices	-6755
▁spikes	-6756
▁Squeaky	-6757
▁hopeful	-6758
▁sailors	-6759
▁squishy	-6760
▁toaster	-6761
jo	-6762
arac	-6763
▁Elly	-6764
▁crew	-6765
▁peck	-6766
▁neare	-6767
▁Michael	-6768
▁postman	-6769
▁reflection	-6770
▁Take	-6771
▁cond	-6772
▁poss	-6773
▁feast	-6774
▁slips	-6775
Grandma	-6776
▁steady	-6777
▁pennies	-6778
▁Squirrel	-6779
▁necklaces	-6780
▁refreshing	-6781
ears	-6782
▁Ray	-6783
▁sniffs	-6784
▁tested	-6785
▁wobbled	-6786
▁grandparents	-6787
▁marshmallows	-6788
yes	-6789
▁oh	-6790
osen	-6791
▁Frog	-6792
▁rout	-6793
▁dived	-6794
▁wakes	-6795
▁chosen	-6796
▁shaped	-6797
▁oysters	-6798
▁sneezing	-6799
▁increased	-6800
▁2	-6801
Like	-6802
worm	-6803
▁Our	-6804
▁Dani	-6805
▁Stay	-6806
▁spins	-6807
▁flight	-6808
▁reason	-6809
▁sewing	-6810
▁greeted	-6811
vil	-6812
mates	-6813
▁Love	-6814
▁tiss	-6815
▁Birdy	-6816
▁Simon	-6817
▁aside	-6818
▁heroes	-6819
▁joining	-6820
▁rushing	-6821
▁behaving	-6822
otten	-6823
unched	-6824
attered	-6825
▁kittens	-6826
▁pigeons	-6827
Our	-6828
Some	-6829
ertain	-6830
▁swans	-6831
▁wiggle	-6832
fire	-6833
▁Spl	-6834
▁dip	-6835
▁occ	-6836
stick	-6837
years	-6838
▁defe	-6839
▁aimed	-6840
▁biting	-6841
▁puppet	-6842
▁tapped	-6843
▁dresser	-6844
▁playroom	-6845
lves	-6846
▁Louise	-6847
▁onward	-6848
▁plucked	-6849
▁appreciation	-6850
▁Fe	-6851
rect	-6852
vant	-6853
▁Baa	-6854
▁moo	-6855
▁Fire	-6856
▁Mina	-6857
▁trot	-6858
▁Thatâ	-6859
▁confl	-6860
▁wrigg	-6861
aracter	-6862
▁adults	-6863
▁rotten	-6864
▁sparks	-6865
▁sending	-6866
▁encourag	-6867
▁trembled	-6868
▁character	-6869
▁scampered	-6870
Fo	-6871
eezes	-6872
iment	-6873
▁explo	-6874
▁offic	-6875
▁scored	-6876
Lucy	-6877
meal	-6878
œNow	-6879
▁hops	-6880
▁spat	-6881
▁Wendy	-6882
▁warri	-6883
▁master	-6884
▁flavors	-6885
▁bells	-6886
▁daring	-6887
▁guests	-6888
▁convers	-6889
▁drawers	-6890
▁waddled	-6891
▁panicked	-6892
▁strongest	-6893
while	-6894
▁pins	-6895
▁Under	-6896
▁manag	-6897
▁rainy	-6898
▁amount	-6899
▁tossed	-6900
▁napping	-6901
▁oatmeal	-6902
▁stacked	-6903
▁worrying	-6904
▁performing	-6905
cky	-6906
rrr	-6907
œMy	-6908
▁Ana	-6909
▁coc	-6910
▁scen	-6911
▁proper	-6912
▁wobbly	-6913
▁causing	-6914
▁freedom	-6915
▁respected	-6916
▁sunflowers	-6917
Mine	-6918
▁Try	-6919
retty	-6920
▁Well	-6921
▁Zero	-6922
▁mate	-6923
▁Flopsy	-6924
▁angels	-6925
▁loading	-6926
▁noodles	-6927
▁seashells	-6928
▁Up	-6929
..."	-6930
▁evil	-6931
▁gest	-6932
▁sadd	-6933
▁Janey	-6934
▁battle	-6935
▁correct	-6936
isc	-6937
▁prove	-6938
▁lessons	-6939
▁respond	-6940
▁gardener	-6941
▁stitches	-6942
ppies	-6943
▁craft	-6944
▁shrug	-6945
▁Ashley	-6946
▁cloudy	-6947
▁tables	-6948
▁unsure	-6949
▁Curious	-6950
▁doorway	-6951
▁cushions	-6952
▁Ga	-6953
▁Im	-6954
onna	-6955
▁Des	-6956
▁Joan	-6957
▁worn	-6958
▁faded	-6959
▁grows	-6960
▁leads	-6961
▁bravest	-6962
iley	-6963
œMom	-6964
▁Rock	-6965
▁Zoomy	-6966
▁rains	-6967
▁action	-6968
▁firmly	-6969
▁designs	-6970
▁firefly	-6971
▁crashing	-6972
▁duckling	-6973
▁frowning	-6974
▁watering	-6975
▁und	-6976
▁earn	-6977
▁surv	-6978
▁clues	-6979
▁coral	-6980
▁defin	-6981
▁sails	-6982
▁wider	-6983
▁Jackie	-6984
▁months	-6985
▁tissue	-6986
▁twisty	-6987
▁smallest	-6988
▁Yesterday	-6989
▁passengers	-6990
▁ais	-6991
▁Mean	-6992
▁cosy	-6993
▁pays	-6994
bbling	-6995
please	-6996
▁Quick	-6997
▁height	-6998
▁humans	-6999
▁behavior	-7000
▁politely	-7001
▁nervously	-7002
hew	-7003
▁Sof	-7004
▁bru	-7005
dress	-7006
▁Honey	-7007
▁Mouse	-7008
urprise	-7009
▁robber	-7010
▁overcome	-7011
▁streamers	-7012
▁encouraging	-7013
emma	-7014
child	-7015
onies	-7016
▁ties	-7017
▁belts	-7018
▁flown	-7019
▁drivers	-7020
▁playtime	-7021
▁surrendered	-7022
ening	-7023
▁Star	-7024
▁fleas	-7025
▁gonna	-7026
▁merma	-7027
▁nearly	-7028
▁yielded	-7029
▁pumpkins	-7030
▁definitely	-7031
▁grandchild	-7032
▁ni	-7033
bird	-7034
iona	-7035
▁inj	-7036
Follow	-7037
undred	-7038
▁poppies	-7039
▁crossing	-7040
▁travelling	-7041
Bob	-7042
ody	-7043
▁yel	-7044
œWell	-7045
▁nuzz	-7046
▁tuck	-7047
▁Chris	-7048
▁Still	-7049
▁races	-7050
▁shady	-7051
▁thatâ	-7052
▁laying	-7053
alloween	-7054
▁blocked	-7055
▁lifting	-7056
▁shovels	-7057
▁ignoring	-7058
▁Meanwhile	-7059
▁performed	-7060
▁quarreling	-7061
Beep	-7062
athy	-7063
▁Bow	-7064
Quick	-7065
▁Bong	-7066
▁ease	-7067
▁suits	-7068
ientist	-7069
▁commun	-7070
▁wobble	-7071
▁yelped	-7072
antastic	-7073
▁results	-7074
▁symbols	-7075
▁brushing	-7076
▁campfire	-7077
▁twinkled	-7078
▁scientist	-7079
▁suggestion	-7080
rey	-7081
upt	-7082
Very	-7083
issa	-7084
lets	-7085
Watch	-7086
eling	-7087
ibbit	-7088
roken	-7089
▁reun	-7090
▁leapt	-7091
▁shown	-7092
▁scurry	-7093
▁Halloween	-7094
acles	-7095
▁pound	-7096
▁colder	-7097
▁ponies	-7098
▁quieter	-7099
▁appreciated	-7100
fly	-7101
▁bless	-7102
▁fills	-7103
▁final	-7104
ighting	-7105
▁fishes	-7106
▁thorns	-7107
▁cobwebs	-7108
▁hairdress	-7109
▁squeezing	-7110
▁waterfall	-7111
▁snowflakes	-7112
▁Fu	-7113
▁Jax	-7114
▁Eliz	-7115
▁Bongo	-7116
▁Fiona	-7117
▁Kelly	-7118
▁Pippa	-7119
▁edges	-7120
▁Pepper	-7121
▁grandd	-7122
▁officers	-7123
▁reversed	-7124
▁tricycle	-7125
▁fantastic	-7126
▁preparing	-7127
▁punishment	-7128
▁surprising	-7129
Sue	-7130
▁Patch	-7131
▁anger	-7132
▁genie	-7133
▁paths	-7134
▁chopped	-7135
▁finishing	-7136
▁passports	-7137
ooky	-7138
Listen	-7139
▁loops	-7140
▁occas	-7141
▁Despite	-7142
▁burying	-7143
▁handing	-7144
▁tighter	-7145
▁suffered	-7146
▁paintbrush	-7147
▁hairdresser	-7148
▁unw	-7149
▁sever	-7150
▁braver	-7151
▁echoed	-7152
▁Snowman	-7153
▁giggles	-7154
▁healing	-7155
▁slither	-7156
▁bandages	-7157
▁distract	-7158
▁reminding	-7159
▁disturbing	-7160
▁X	-7161
Bun	-7162
TMd	-7163
ppa	-7164
▁gap	-7165
▁Izzy	-7166
laying	-7167
▁tying	-7168
▁Daniel	-7169
▁Because	-7170
▁forests	-7171
▁several	-7172
▁surfing	-7173
▁smelling	-7174
▁sniffing	-7175
▁surfboard	-7176
rup	-7177
cent	-7178
▁Ali	-7179
▁fits	-7180
œWhere	-7181
▁Green	-7182
▁notes	-7183
▁collap	-7184
▁baskets	-7185
▁certain	-7186
▁cleaner	-7187
▁Quackers	-7188
▁connected	-7189
œIf	-7190
rier	-7191
▁Cle	-7192
▁sou	-7193
▁rays	-7194
▁risks	-7195
▁snort	-7196
▁spits	-7197
▁syrup	-7198
▁tipped	-7199
▁licking	-7200
▁conflict	-7201
▁congratul	-7202
ushed	-7203
▁coug	-7204
iscuit	-7205
▁Sofia	-7206
▁maker	-7207
▁Froggy	-7208
▁Pretty	-7209
▁seller	-7210
▁cottage	-7211
▁hundred	-7212
▁puzzled	-7213
▁travels	-7214
▁packages	-7215
▁stopping	-7216
▁sweetest	-7217
vroom	-7218
▁Ally	-7219
▁purr	-7220
broken	-7221
▁conqu	-7222
▁drown	-7223
▁ships	-7224
▁magnif	-7225
▁spooky	-7226
▁efforts	-7227
▁squeaked	-7228
▁believing	-7229
▁breathing	-7230
▁examining	-7231
ca	-7232
erm	-7233
œOf	-7234
bage	-7235
œBut	-7236
▁Ava	-7237
athan	-7238
œOkay	-7239
▁mailed	-7240
▁cuddles	-7241
▁garbage	-7242
Jo	-7243
▁Din	-7244
▁prob	-7245
▁Kevin	-7246
▁frowns	-7247
Surprise	-7248
▁lending	-7249
▁probably	-7250
▁slipping	-7251
▁suffering	-7252
▁whispering	-7253
Wh	-7254
asty	-7255
rian	-7256
▁elf	-7257
ading	-7258
inger	-7259
▁Rain	-7260
▁shoo	-7261
▁Marie	-7262
▁Start	-7263
▁buses	-7264
▁tubes	-7265
▁Mother	-7266
▁address	-7267
▁mermaid	-7268
▁inchworm	-7269
cher	-7270
line	-7271
onse	-7272
inkle	-7273
▁Jean	-7274
▁lent	-7275
isions	-7276
▁guide	-7277
▁spells	-7278
▁Feeling	-7279
▁arranged	-7280
▁planting	-7281
▁response	-7282
▁thoughts	-7283
▁bothering	-7284
▁repeating	-7285
?!"	-7286
mbers	-7287
▁Okay	-7288
▁dump	-7289
▁gears	-7290
▁charge	-7291
▁except	-7292
▁sharks	-7293
▁tablet	-7294
▁gesture	-7295
▁humming	-7296
▁masterp	-7297
▁members	-7298
▁trotted	-7299
▁forgiving	-7300
but	-7301
▁Any	-7302
found	-7303
inted	-7304
▁fins	-7305
▁grip	-7306
▁coach	-7307
▁sewed	-7308
▁damaged	-7309
▁luckily	-7310
▁customers	-7311
▁responsib	-7312
bba	-7313
▁til	-7314
utter	-7315
▁Nana	-7316
▁Barry	-7317
▁Holly	-7318
▁Megan	-7319
▁Peggy	-7320
▁goodby	-7321
▁rather	-7322
▁within	-7323
▁driveway	-7324
▁explorer	-7325
▁decisions	-7326
▁supported	-7327
▁instruments	-7328
€,	-7329
▁Ty	-7330
Vroom	-7331
antha	-7332
▁lies	-7333
▁Angel	-7334
▁Peppa	-7335
▁whose	-7336
▁cotton	-7337
▁annoyed	-7338
▁wasting	-7339
▁goodbyes	-7340
▁chocolates	-7341
▁Pau	-7342
▁Fuzzy	-7343
▁Satur	-7344
▁antic	-7345
▁knots	-7346
▁weeds	-7347
▁Maddie	-7348
▁Splash	-7349
▁Stitch	-7350
▁nurses	-7351
▁pupils	-7352
▁rotting	-7353
▁soaking	-7354
▁warrior	-7355
▁Fighting	-7356
▁Saturday	-7357
▁reunited	-7358
▁vehicles	-7359
▁understands	-7360
▁accomplished	-7361
Get	-7362
▁Ph	-7363
ails	-7364
▁Helen	-7365
▁reapp	-7366
▁teles	-7367
▁calmly	-7368
▁cheers	-7369
▁novels	-7370
▁robots	-7371
▁dangers	-7372
▁although	-7373
▁Excitedly	-7374
▁telescope	-7375
acle	-7376
ilda	-7377
▁mood	-7378
▁Maisy	-7379
▁elbow	-7380
▁focus	-7381
▁stomp	-7382
▁tweet	-7383
▁cowboy	-7384
▁despite	-7385
▁stumble	-7386
▁Samantha	-7387
▁material	-7388
▁newfound	-7389
▁discussing	-7390
mies	-7391
asers	-7392
steps	-7393
▁peas	-7394
▁rescu	-7395
▁wisely	-7396
▁twisting	-7397
▁permitted	-7398
▁heartbroken	-7399
▁conversation	-7400
▁swo	-7401
ooking	-7402
▁buddy	-7403
▁crowns	-7404
▁spills	-7405
▁tidied	-7406
▁changes	-7407
▁belongings	-7408
▁classmates	-7409
▁Pu	-7410
crow	-7411
dding	-7412
▁Robo	-7413
▁bits	-7414
▁darl	-7415
ugging	-7416
▁awoke	-7417
▁refuse	-7418
▁wealth	-7419
▁swollen	-7420
▁crystals	-7421
▁darlings	-7422
▁explains	-7423
▁guessing	-7424
▁teachers	-7425
▁whistles	-7426
▁footsteps	-7427
▁reassured	-7428
▁masterpiece	-7429
rie	-7430
iens	-7431
wise	-7432
▁aim	-7433
▁tar	-7434
▁Katy	-7435
▁Lina	-7436
▁decl	-7437
▁vegg	-7438
perate	-7439
▁Jonny	-7440
œPlease	-7441
▁aliens	-7442
▁peeled	-7443
▁Frankie	-7444
▁Outside	-7445
▁prayers	-7446
▁student	-7447
▁insisting	-7448
▁Sk	-7449
Take	-7450
ammy	-7451
aven	-7452
▁Mae	-7453
▁dot	-7454
▁rin	-7455
mered	-7456
▁germ	-7457
▁Bubba	-7458
▁nasty	-7459
▁scent	-7460
▁vines	-7461
▁figures	-7462
▁nibbled	-7463
▁speeding	-7464
▁bracelets	-7465
▁sill	-7466
▁vibr	-7467
▁spies	-7468
▁Seeing	-7469
▁nibble	-7470
▁encount	-7471
▁flipped	-7472
▁solving	-7473
▁toolbox	-7474
▁seagulls	-7475
▁troubles	-7476
aa	-7477
whe	-7478
rest	-7479
▁Elsa	-7480
▁emer	-7481
▁form	-7482
▁Other	-7483
▁Tiger	-7484
Alright	-7485
▁chilly	-7486
▁stored	-7487
▁target	-7488
▁toward	-7489
▁untied	-7490
▁artwork	-7491
▁treated	-7492
▁business	-7493
▁comforting	-7494
▁beautifully	-7495
aby	-7496
chy	-7497
lor	-7498
sol	-7499
ider	-7500
order	-7501
▁afar	-7502
▁exch	-7503
▁Paula	-7504
▁taped	-7505
▁survive	-7506
▁birdhouse	-7507
▁exercises	-7508
▁congratulated	-7509
▁granddaughter	-7510
▁unfortunately	-7511
idey	-7512
what	-7513
▁Win	-7514
Little	-7515
▁Flora	-7516
▁aware	-7517
▁marve	-7518
▁posit	-7519
▁banged	-7520
▁simply	-7521
▁delayed	-7522
▁honking	-7523
▁servant	-7524
▁statues	-7525
▁veggies	-7526
Goodnight	-7527
▁inspired	-7528
▁mosquitoes	-7529
Boys	-7530
▁Lion	-7531
▁rats	-7532
▁Rufus	-7533
▁force	-7534
▁kings	-7535
▁sweaty	-7536
five	-7537
▁Liam	-7538
▁Ping	-7539
▁Rudy	-7540
Always	-7541
father	-7542
ighing	-7543
▁trans	-7544
▁Spidey	-7545
▁gazing	-7546
▁wounds	-7547
▁turtles	-7548
▁Startled	-7549
▁activity	-7550
▁squished	-7551
▁thanking	-7552
sm	-7553
pen	-7554
ecca	-7555
gain	-7556
▁Spe	-7557
▁rely	-7558
▁Roger	-7559
▁loses	-7560
▁untie	-7561
▁manners	-7562
▁tapping	-7563
▁apologised	-7564
Cl	-7565
we	-7566
▁Se	-7567
ipes	-7568
▁dep	-7569
▁spy	-7570
elvet	-7571
▁toss	-7572
▁foxes	-7573
▁joins	-7574
▁scram	-7575
▁sweep	-7576
▁beeped	-7577
▁labels	-7578
▁emerged	-7579
▁smashed	-7580
▁scurrying	-7581
œThe	-7582
onnie	-7583
orter	-7584
▁Dory	-7585
▁curl	-7586
▁jars	-7587
▁Tessa	-7588
▁flaps	-7589
▁oppos	-7590
▁bitten	-7591
▁convin	-7592
▁ghosts	-7593
▁pandas	-7594
▁shrunk	-7595
▁twenty	-7596
▁warmly	-7597
▁concert	-7598
▁pleaded	-7599
▁purpose	-7600
▁correctly	-7601
▁presented	-7602
ivia	-7603
▁Alf	-7604
▁hen	-7605
▁Ever	-7606
▁sped	-7607
▁aisle	-7608
▁squaw	-7609
▁stall	-7610
▁tires	-7611
▁Ginger	-7612
▁Freddie	-7613
▁anticip	-7614
▁swaying	-7615
▁dressing	-7616
▁wrinkled	-7617
▁encouragement	-7618
elie	-7619
▁Dog	-7620
▁Zee	-7621
▁bea	-7622
▁jud	-7623
ortun	-7624
▁Nora	-7625
ummies	-7626
▁Becky	-7627
▁nests	-7628
▁prick	-7629
▁rowed	-7630
▁Velvet	-7631
▁transf	-7632
▁nearest	-7633
▁opportun	-7634
▁trusting	-7635
▁magazines	-7636
▁glittering	-7637
ats	-7638
▁Cara	-7639
▁Step	-7640
▁ramp	-7641
▁type	-7642
▁Brian	-7643
▁Terry	-7644
▁inter	-7645
▁otters	-7646
▁wiggly	-7647
▁cleared	-7648
▁nuzzled	-7649
▁pedaled	-7650
▁picnics	-7651
▁tasting	-7652
▁opposite	-7653
▁rescuing	-7654
▁grandfather	-7655
œA	-7656
▁Sw	-7657
ddie	-7658
roll	-7659
œHey	-7660
▁loc	-7661
▁sav	-7662
Every	-7663
Leave	-7664
▁adds	-7665
▁gall	-7666
▁blond	-7667
▁girlâ	-7668
▁Spring	-7669
▁cocoon	-7670
▁swayed	-7671
▁swimmer	-7672
▁covering	-7673
▁declared	-7674
▁uniforms	-7675
▁displayed	-7676
▁scarecrow	-7677
▁shimmering	-7678
▁windowsill	-7679
▁anticipation	-7680
mo	-7681
acy	-7682
its	-7683
amma	-7684
rily	-7685
ators	-7686
▁Hope	-7687
▁Jojo	-7688
idence	-7689
screen	-7690
▁dodged	-7691
▁visits	-7692
▁lipstick	-7693
▁designing	-7694
▁Sl	-7695
▁hoo	-7696
▁Elle	-7697
▁disc	-7698
▁ends	-7699
▁purrs	-7700
▁Shelly	-7701
▁sadder	-7702
▁beating	-7703
▁attacked	-7704
▁doorbell	-7705
▁collapsed	-7706
▁scrambled	-7707
▁discoveries	-7708
munk	-7709
▁Man	-7710
manda	-7711
▁Gret	-7712
▁Poor	-7713
▁Sand	-7714
▁Time	-7715
▁peep	-7716
▁snug	-7717
illiam	-7718
▁flick	-7719
▁flips	-7720
▁joked	-7721
▁cracks	-7722
▁images	-7723
▁sheets	-7724
▁manager	-7725
▁routine	-7726
▁tumbled	-7727
▁backpacks	-7728
▁decoration	-7729
▁forgiveness	-7730
Fl	-7731
pit	-7732
▁Fort	-7733
▁Ruth	-7734
▁swap	-7735
▁whoo	-7736
romise	-7737
▁Eddie	-7738
▁Nancy	-7739
▁icing	-7740
▁Amanda	-7741
▁Monkey	-7742
▁failed	-7743
ordinary	-7744
▁Welcome	-7745
▁bathing	-7746
▁tummies	-7747
▁sunscreen	-7748
▁generosity	-7749
▁toothbrush	-7750
▁experienced	-7751
Dear	-7752
usty	-7753
▁Luc	-7754
▁yum	-7755
water	-7756
▁JoJo	-7757
▁beeh	-7758
▁flip	-7759
▁grat	-7760
▁ting	-7761
▁Crabby	-7762
▁Olivia	-7763
▁obeyed	-7764
▁sprout	-7765
▁goodies	-7766
▁singers	-7767
▁encountered	-7768
So	-7769
da	-7770
aus	-7771
empt	-7772
▁Pin	-7773
▁Wil	-7774
▁conv	-7775
▁lapt	-7776
▁sens	-7777
boards	-7778
▁badger	-7779
▁heaven	-7780
▁William	-7781
▁nodding	-7782
▁sternly	-7783
▁customer	-7784
▁dripping	-7785
▁gratitude	-7786
▁admiration	-7787
▁astronauts	-7788
▁Fortunately	-7789
uel	-7790
▁amu	-7791
ative	-7792
ument	-7793
▁Phil	-7794
▁minds	-7795
▁shall	-7796
▁snaps	-7797
ilities	-7798
▁crawls	-7799
▁inches	-7800
▁slowed	-7801
▁Melissa	-7802
▁attempt	-7803
▁convince	-7804
▁brightest	-7805
erk	-7806
elle	-7807
lied	-7808
œSee	-7809
▁Beh	-7810
▁Flo	-7811
ddles	-7812
▁Alan	-7813
▁Youâ	-7814
▁Jason	-7815
▁blown	-7816
▁meows	-7817
▁robin	-7818
▁Bounce	-7819
▁floats	-7820
▁Jonathan	-7821
▁chipmunk	-7822
▁scooters	-7823
▁visitors	-7824
▁applauding	-7825
▁extraordinary	-7826
cie	-7827
lph	-7828
udo	-7829
ulp	-7830
▁Min	-7831
ances	-7832
▁diso	-7833
▁stew	-7834
udolph	-7835
▁Gabby	-7836
▁films	-7837
▁fires	-7838
▁matey	-7839
▁sculp	-7840
▁soapy	-7841
▁explor	-7842
▁laptop	-7843
▁orders	-7844
▁parted	-7845
▁flashed	-7846
▁lowered	-7847
▁million	-7848
▁grandson	-7849
▁recorder	-7850
▁umbrellas	-7851
bee	-7852
▁Say	-7853
œGood	-7854
▁priz	-7855
▁shin	-7856
▁germs	-7857
▁goats	-7858
▁Taking	-7859
▁member	-7860
▁scolds	-7861
▁breaths	-7862
▁drowned	-7863
▁meowing	-7864
▁reminds	-7865
▁tidying	-7866
▁checkout	-7867
▁diamonds	-7868
lyn	-7869
Bang	-7870
▁Pen	-7871
▁Sir	-7872
angle	-7873
ctric	-7874
▁fond	-7875
▁teams	-7876
▁Speedy	-7877
▁beaming	-7878
▁bounces	-7879
▁conduct	-7880
▁shorter	-7881
▁applause	-7882
▁munching	-7883
▁quacking	-7884
▁switched	-7885
▁responded	-7886
▁instrument	-7887
▁	-7888
e	-7889
a	-7890
t	-7891
o	-7892
h	-7893
n	-7894
i	-7895
d	-7896
s	-7897
r	-7898
l	-7899
y	-7900
m	-7901
w	-7902
.	-7903
u	-7904
g	-7905
c	-7906
p	-7907
f	-7908
b	-7909
k	-7910
,	-7911
T	-7912
v	-7913
"	-7914
S	-7915
H	-7916
L	-7917
I	-7918
'	-7919
O	-7920
!	-7921
B	-7922
M	-7923
x	-7924
A	-7925
W	-7926
j	-7927
J	-7928
Y	-7929
?	-7930
z	-7931
D	-7932
â	-7933
€	-7934
E	-7935
F	-7936
q	-7937
C	-7938
N	-7939
G	-7940
P	-7941
-	-7942
œ	-7943
R	-7944
K	-7945
:	-7946
3	-7947
V	-7948
Z	-7949
U	-7950
;	-7951
Q	-7952
“	-7953
1	-7954
0	-7955
”	-7956
̃	-7957
2	-7958
X	-7959
5	-7960
4	-7961
¦	-7962
Ã	-7963
9	-7964
©	-7965
7	-7966
/	-7967
8	-7968
6	-7969
Â	-7970
)	-7971
`	-7972
(	-7973
$	-7974
*	-7975
&	-7976
\	-7977
±	-7978
‰	-7979
Š	-7980
+	-7981
«	-7982
»	-7983
́	-7984
#	-7985
¡	-7986
­	-7987
‹	-7988
]	-7989
%	-7990
̄	-7991
<	-7992
>	-7993
[	-7994
_	-7995
|	-7996
